#version: 0.2
r e
Ġ s
o n
Ġ t
i n
e r
Ġ d
Ġ c
Ġ l
a n
Ġ g
Ġ w
Ġ p
Ġ m
s s
a l
Ġ b
i on
Ġ n
Ġ f
Ġ h
a t
a y
e n
e p
o t
e t
i t
o r
a r
re ss
o m
e l
ep ress
epress ion
s t
o u
l e
o o
i c
in g
Ġd epression
k e
Ġ e
Ġ a
v e
o w
l y
s e
g h
Ġ re
c h
Ġn ot
Ġt h
a d
om e
e e
Ġs t
r i
o p
Ġl i
c k
oo d
on e
t h
gh t
i l
u n
Ġg o
m e
v er
a ke
o l
t er
en t
el l
Ġg et
i d
r a
o ve
Ġ k
Ġt w
Ġ an
i s
e a
c e
i r
c t
i ght
al ly
a p
Ġc h
o d
en d
Ġd ay
Ġs u
an k
Ġg ood
Ġ y
at e
g e
Ġn e
Ġs h
l d
Ġw or
r o
r y
i me
Ġd e
Ġ in
Ġc ome
u t
i e
it ter
n ow
in k
Ġli ke
u l
Ġl ove
e d
an t
Ġ al
Ġtw itter
a m
f e
a ck
il l
e ar
Ġ j
Ġ v
oo k
ou ld
Ġt ime
re at
Ġs ee
Ġl ot
u m
a st
i ve
Ġ o
e ss
h er
on g
Ġe x
Ġp ic
Ġk now
Ġm u
it e
Ġm ake
Ġw ell
f f
u r
Ġe ver
in d
ar t
ap p
od ay
ic e
i et
Ġ one
e s
an d
at ch
Ġ r
Ġt oday
Ġb e
Ġf e
a b
at ion
iet y
Ġw e
ou n
w ay
a h
g et
in e
x iety
Ġwor k
a s
i g
id e
e et
ar d
u re
Ġ ri
d epression
l a
a se
g o
Ġth ank
Ġne w
Ġh e
Ġfe el
Ġan xiety
al l
Ġc on
Ġever y
r u
ee d
Ġ u
th ank
Ġth ink
h e
e op
l ow
Ġs p
Ġs ay
eop le
i m
op e
is h
Ġm an
oo l
i st
o y
s h
Ġb ack
Ġn ight
Ġg reat
Ġw ant
a re
Ġs o
Ġf ri
ee k
app y
Ġp eople
c i
Ġa d
Ġp o
g ood
Ġw ould
or n
u d
ot her
q u
r ow
p p
Ġf un
Ġd o
Ġ en
ou s
Ġw eek
ou t
ou gh
Ġmu ch
ou r
u ck
d er
Ġg u
Ġre ally
or t
el p
f ul
i a
Ġp r
it y
Ġt ake
h ing
ic k
Ġp l
Ġj o
Ġp ro
m a
m ent
el y
a it
Ġc om
ol low
b le
d ay
Ġli fe
Ġfri end
Ġl ook
l o
v en
Ġh ope
Ġh elp
al k
i ss
ad y
orn ing
oun d
b e
Ġth ing
Ġw ay
Ġa w
Ġm ay
Ġn eed
or row
s p
u s
Ġt ry
Ġp er
a ge
le ep
i p
Ġf ollow
Ġan y
Ġt o
Ġp re
e x
Ġ ro
a in
Ġl o
Ġw atch
ol d
o h
Ġri ght
a me
t le
Ġt om
ra in
u e
Ġm orning
Ġh ome
e st
Ġsh ow
p er
Ġf a
l ove
Ġh appy
Ġw ait
Ġb ad
es ome
Ġtom orrow
Ġp h
Ġm o
Ġe ven
Ġs un
Ġg ive
c ome
e m
n ess
Ġ un
Ġh ah
om et
e ct
Ġ qu
Ġw h
Ġf or
Ġa ct
i re
a g
le ase
Ġc o
Ġtw eet
Ġu se
he y
l ot
Ġl ea
v ie
i z
re e
Ġs leep
Ġevery one
ir st
a k
b er
m er
Ġl et
t y
Ġc ut
re n
Ġl ast
s on
Ġs w
Ġs omet
Ġst ill
Ġy ear
Ġne ver
Ġb l
Ġc ould
Ġd is
Ġl a
Ġn ice
Ġso on
m o
ea h
Ġgu y
p l
Ġm ent
Ġch e
s o
Ġs ome
Ġf in
s ic
Ġl e
Ġth ough
th ing
i le
j oy
w atch
Ġ ar
Ġf ind
Ġh ear
u st
an ce
Ġb r
Ġh a
way s
f in
ir l
Ġaw esome
e ver
i x
u ff
Ġs ch
Ġt alk
Ġpl ay
l i
Ġm om
n y
s k
Ġp art
Ġb ed
Ġf irst
il d
i f
i ly
u se
x x
at er
Ġre al
Ġo f
m an
Ġl it
Ġg r
Ġ im
Ġt on
Ġw r
Ġhe al
k now
v el
Ġst art
Ġin t
z ing
Ġ ke
Ġp lease
en ce
ar k
Ġe at
g g
u p
Ġs ong
Ġb u
at h
or y
Ġpo st
u ally
re ak
Ġc ool
Ġm e
Ġb ir
Ġwor ld
Ġad d
Ġsomet hing
Ġment al
Ġth e
Ġex c
a ct
Ġs e
an ge
c c
i v
Ġt ell
at t
Ġli st
Ġweek end
Ġjo b
Ġ ra
Ġl ong
Ġm iss
th ink
th day
Ġsome one
Ġli ve
h appy
Ġg irl
ff er
Ġsch ool
Ġton ight
a ss
Ġb it
Ġb ea
Ġmo vie
d e
i se
l ad
Ġal ways
ig n
i ous
o re
w or
ar ly
Ġsu re
Ġen joy
d y
x t
in t
an g
Ġh ot
Ġne xt
c on
o g
Ġa ma
one y
Ġk id
Ġu p
Ġke ep
Ġbir thday
Ġe m
la ss
Ġmay be
h ah
u al
Ġc all
Ġ it
re ady
ur n
a w
o ot
u b
Ġ x
Ġs m
ow n
Ġre c
Ġre ad
Ġmu sic
Ġcon t
Ġheal th
i gh
Ġs er
Ġm on
ou se
Ġche ck
Ġ old
Ġc ol
Ġw in
Ġlit tle
a c
p e
w ell
Ġ ill
Ġs c
le ss
Ġy a
Ġama zing
Ġ or
Ġb ig
Ġf uck
Ġh our
Ġre ady
oun t
n e
n o
t ty
Ġ op
Ġt ra
ul t
Ġv ia
ab le
Ġcom p
a ve
n er
Ġd r
Ġa ss
Ġst ud
Ġsu pp
Ġlist en
Ġl uck
Ġper son
Ġme an
o le
Ġ el
Ġ end
Ġ att
Ġc an
Ġw it
Ġm oney
Ġf am
Ġh ard
ic t
fe ct
re am
Ġt ru
Ġc are
Ġm y
Ġm ed
Ġb reak
Ġsu m
Ġal so
Ġlea ve
iz e
g reat
i ful
s ay
Ġt ea
Ġw ish
Ġh app
ut iful
Ġo h
Ġhe ad
a il
m y
n ight
y es
Ġc ra
Ġb oy
li ke
p t
Ġw ar
Ġre l
ri ve
Ġgo d
in ce
Ġc l
Ġc ure
Ġh ouse
at her
h i
s er
u g
Ġb ab
or ry
ic al
Ġa pp
Ġst op
ci al
e re
Ġt r
el f
Ġa cc
Ġnot hing
c er
l et
l ook
r at
s c
y eah
Ġ id
Ġm eet
Ġh it
or d
Ġman y
Ġact ually
Ġim p
wor k
w ard
Ġ on
Ġg ame
Ġa way
od y
la ce
ud e
m ake
t ime
on der
Ġt ri
ot ion
un e
Ġr un
Ġwr ite
d ge
s it
y m
Ġ out
Ġs it
an y
Ġb lo
Ġsu ffer
Ġde c
Ġal ready
ide o
Ġfam ily
m ber
Ġm ar
Ġm ind
Ġb ook
ot e
Ġa v
Ġan other
Ġsu ic
Ġsh it
Ġsum mer
s ide
ar y
ou ght
un ch
Ġch ild
Ġy es
ul l
Ġar ound
e en
k ay
z y
Ġs ing
Ġc ar
Ġb o
Ġb us
Ġe arly
me mber
Ġin c
ut e
Ġph one
Ġbab y
h a
p o
in ner
Ġp ain
Ġm ight
Ġf ree
Ġa b
Ġst ay
Ġk ind
Ġin ter
Ġsw eet
gg le
t w
Ġ art
Ġ rain
Ġn ap
Ġf l
Ġh ell
Ġst uff
ol l
Ġch ange
Ġy eah
Ġex per
Ġpre tty
vel op
Ġbea utiful
Ġwit h
Ġhapp en
in ess
Ġg lad
Ġh and
Ġtw o
ong rat
ci se
Ġlea st
Ġbu y
Ġsupp ort
" "
b r
i ence
o f
u gh
Ġs ad
er cise
Ġl ater
Ġp lace
al a
Ġf ight
le ct
Ġa f
se e
Ġde velop
f or
s w
Ġs k
Ġc le
Ġm other
Ġn ame
el come
Ġre d
ri ght
fe ren
as on
xx xx
Ġstud y
b ack
h ope
l ine
m om
v or
Ġm in
Ġn o
Ġre p
Ġre st
Ġst r
Ġsu r
Ġv ideo
ble m
Ġfollow er
Ġlo se
ere st
d a
Ġ ep
Ġs elf
Ġd inner
Ġc lass
Ġp ay
Ġp ut
Ġb el
Ġh igh
ep t
it ed
Ġa sk
Ġre g
ea k
ru ggle
Ġany thing
Ġcut e
Ġem otion
Ġmon th
w ant
y e
re ad
Ġf ood
Ġh al
Ġh ate
or der
Ġy et
ie ve
Ġal b
Ġfin ally
Ġbr ing
a ch
i an
o c
r on
s y
re ally
Ġs l
Ġs ound
Ġt reat
Ġt urn
Ġt une
Ġd ra
Ġf ar
Ġe as
Ġde al
Ġin d
iss ue
mo st
Ġill ness
Ġel se
Ġid ea
a use
d ate
f t
Ġ I
Ġs end
Ġt rain
ou d
Ġth ought
Ġst ress
Ġsu per
ex t
est er
Ġha ir
Ġfuck ing
Ġexper ience
p le
s u
Ġ issue
Ġs et
ot ally
Ġo ver
Ġfri dge
Ġfun ny
Ġro ck
Ġpart y
b ody
t ure
v ent
Ġc ase
Ġl ow
Ġl ear
Ġw onder
Ġm ess
Ġh o
Ġst ruggle
Ġgo ing
ver s
od e
Ġsh op
Ġsh are
Ġo ff
ire d
Ġblo g
Ġlear n
b ook
l ist
p h
v ely
w ould
Ġs ince
Ġs orry
Ġt er
Ġt op
Ġd epress
Ġd rive
Ġp ass
it ion
ar ch
ad e
Ġch ar
fe el
Ġex p
Ġpic ture
ab ly
Ġdis order
Ġint erest
Ġalb um
ester day
i al
Ġc ook
Ġf an
Ġf ly
ce ss
Ġen ough
Ġpl an
Ġjo in
Ġpro blem
Ġany way
ever y
if feren
Ġdr ink
Ġeas y
a ce
a ir
n eed
Ġs ign
Ġt ill
Ġp u
st and
Ġa m
se arch
Ġre ason
ch e
Ġwor d
Ġwor th
am a
um p
ff ee
Ġri sk
ci ate
ful ly
Ġro om
Ġfor ward
ser ve
Ġwith out
vor ite
da e
j ect
m it
Ġd am
Ġc ause
Ġw ake
Ġm em
al e
Ġb rain
Ġh ar
ur t
ur dy
Ġwe ather
ma il
Ġwh ole
Ġco ffee
ne w
list en
f ri
g u
l ast
m on
n ice
t ake
w ait
Ġs ex
Ġd i
Ġd ream
Ġc re
Ġl ess
Ġp at
Ġm ove
it ely
Ġv is
Ġsee m
ist er
Ġany one
Ġla ugh
Ġhear t
fin itely
Ġop en
Ġsuic ide
b ably
i ke
i ble
m m
s leep
w ow
Ġt ie
er ap
Ġd on
Ġd ifferen
Ġl ate
Ġf ix
ay er
ic a
Ġre m
Ġre member
od u
Ġwe b
get her
as h
Ġcon cer
Ġevery thing
sh ip
Ġgu ess
Ġsun dae
Ġun der
pl ay
Ġser ious
g lad
t ry
Ġs ym
Ġt een
Ġc ry
Ġb ar
Ġn ite
Ġf all
Ġh um
Ġwor ry
Ġlo vely
Ġqu ite
vie w
Ġfin ish
Ġle ad
pt om
Ġtri p
g r
i b
i um
l ing
p re
Ġ other
Ġb at
Ġn or
ot o
Ġa go
Ġst ory
Ġst urdy
Ġan d
Ġan n
Ġy um
Ġy esterday
he ad
Ġsp end
our se
Ġpr om
Ġfor get
fin ally
Ġadd ict
Ġsm ile
Ġout side
d o
g er
o id
t ain
v ice
Ġ et
Ġs a
Ġs n
Ġs ea
Ġs ite
Ġm ood
Ġf oot
ou th
ic ally
Ġe mail
Ġa mer
ol ar
Ġsu ck
Ġo b
Ġto gether
Ġfa vorite
Ġdis c
Ġbit ch
con d
Ġdevelop ment
Ġemotion al
c le
f un
i fe
l and
w h
z e
re en
Ġs ide
Ġl ink
Ġh ug
en se
oo p
ra ct
Ġde ep
Ġal most
Ġex ercise
Ġpic k
la x
ru g
he re
ci ally
Ġdo g
lo se
Ġwr ong
Ġse cond
fri end
Ġamer ica
e ep
h ell
o ver
re ciate
Ġd own
Ġc ri
Ġc op
Ġc ur
Ġp ot
Ġp ast
at ter
at ive
ou ch
ow er
Ġth erap
Ġli e
Ġde serve
Ġex am
Ġpo ss
Ġjo ke
Ġfa ce
Ġle g
Ġexc ite
Ġconcer t
c y
d ing
h ear
i ent
m orning
n t
o ice
t en
u ry
Ġw alk
Ġp ea
Ġm ine
Ġm ile
Ġh u
Ġh urt
om an
el e
el lect
ou ble
oo se
Ġe sp
Ġst ate
ol og
ie ce
am p
Ġo kay
ff ic
Ġhe y
Ġsp eak
Ġsp ace
Ġso cial
Ġpr odu
ex c
Ġfa ct
Ġint ellect
aw esome
Ġvis it
Ġsym ptom
p r
p ro
t o
u u
u ation
w elcome
y pe
re t
Ġt ext
Ġt otally
Ġt ired
Ġd ark
Ġc ongrat
Ġg ra
Ġp age
Ġm od
et e
ou p
un k
Ġpo sit
est ion
Ġbr other
fin ish
Ġexc ited
no on
Ġtru e
Ġapp reciate
Ġintellect ual
e at
h al
m ay
n ot
p art
s ent
s ure
Ġd a
Ġd ad
Ġp ri
Ġm ark
Ġn um
Ġh un
at ely
ve re
Ġre lax
ri l
il ity
ir t
Ġsu g
Ġmu st
Ġbe at
Ġfeel ing
Ġpro bably
Ġper fect
Ġshow er
Ġche er
Ġup date
Ġtea ch
Ġinter n
sy ch
che ck
Ġdam n
Ġunder stand
c ool
f it
g no
i o
o kay
t on
Ġs ick
Ġt oo
Ġt est
Ġd el
Ġd ie
Ġd rug
an n
Ġw ed
Ġw oman
Ġp an
Ġp od
Ġf re
Ġf il
Ġf ine
Ġh om
Ġh ang
Ġe ar
Ġre search
one st
ir d
Ġde finitely
Ġin f
ill ion
ur ch
Ġbe come
are nt
Ġpo int
ia gno
lo ad
Ġph oto
Ġqu estion
Ġgr ad
iv ity
Ġbea ch
Ġcol le
Ġatt ack
Ġmed ic
Ġcra zy
Ġaf ter
Ġcle an
Ġmin ute
b o
e cially
f ast
f ollow
h ome
p ing
p ort
s ign
t alk
w ish
re d
Ġt ype
Ġc at
an e
Ġg lass
Ġp ar
Ġp sych
Ġb et
Ġb ut
Ġf ull
oo h
Ġe ye
Ġa ge
Ġre s
th e
ol ut
Ġk ill
Ġsu b
ge st
Ġsh ort
ime s
Ġin st
Ġr u
oun g
ig ure
Ġhope fully
sp ect
Ġro b
Ġwh ite
Ġbl ack
Ġcan n
Ġbus y
po st
Ġrep ly
Ġhal ala
ron ic
Ġinterest ing
Ġdifferen t
Ġbat tle
Ġsea son
hell o
Ġwed ding
a way
b t
b u
b all
c ongrat
f fect
g in
g an
l ude
m in
o ke
s et
s ome
s ound
t ru
u ch
y le
y sic
Ġ z
re l
Ġs im
Ġs ave
Ġl unch
Ġg en
Ġm ix
Ġm atter
ss ion
Ġb and
Ġb ase
Ġh i
Ġh or
it her
Ġe ase
Ġa ir
ee ee
ri se
id al
Ġk ick
Ġch ronic
ul ation
Ġj ust
and y
Ġri de
Ġnew s
Ġsp e
Ġpr oud
ick et
Ġcom pl
Ġha ve
Ġmom ent
act ly
Ġrec ord
Ġcol or
Ġdec ide
sw er
xxxx xxxx
Ġbel ieve
Ġmess age
Ġpea ce
Ġesp ecially
Ġprodu ct
Ġposit ive
Ġnum ber
b y
c om
c ould
e al
f er
g y
g ra
p eople
r it
s ite
s orry
t oday
w e
Ġs al
Ġs ix
Ġs ister
on d
Ġt ouch
er ally
Ġd iagno
Ġc ount
Ġc lose
Ġl on
Ġw ater
Ġm a
Ġb ra
Ġb less
Ġf it
en joy
it ar
Ġe ffect
ent ion
is ode
Ġy oung
Ġde ath
Ġo ffer
la in
good night
ip olar
Ġbl ue
Ġreal ize
Ġinc lude
Ġhell o
Ġep isode
Ġaddict ion
Ġcolle ge
1 2
b l
c ast
d r
i or
m al
m uch
p rise
r ove
t om
t ing
Ġs il
er a
Ġd ance
Ġc ity
Ġc ourse
Ġc ele
an xiety
Ġw ow
Ġw elcome
Ġp ol
Ġp uff
Ġp ub
Ġp iece
Ġm ad
Ġm ag
Ġb en
st ill
Ġa g
Ġa ble
Ġan swer
ct or
ap e
Ġch ance
Ġch oose
Ġgood night
ate ver
Ġsh oot
ro ss
Ġex t
ation ship
Ġri p
Ġpl us
Ġph ysic
Ġsun ny
Ġco ver
Ġgr and
up id
Ġon line
any one
Ġstr ong
Ġpat ient
Ġrem ind
Ġhu ge
Ġsug gest
Ġafter noon
e ven
f ind
f irst
g ive
m end
n ever
o se
r ic
s is
t e
t op
t ell
w ake
Ġs ort
Ġt our
Ġt icket
Ġd ress
Ġd ude
Ġc ap
Ġc atch
Ġp ap
Ġp ower
Ġm ot
Ġb ipolar
Ġst ar
Ġst ick
id er
Ġsh irt
Ġal one
ast ic
Ġbe h
ab is
ard en
Ġcon f
Ġcon s
ru sh
Ġu s
Ġgu itar
Ġpr ay
Ġlo c
Ġeven ing
Ġlit erally
Ġcont in
Ġor der
Ġtra ck
Ġluck y
Ġatt ention
Ġmed ium
Ġbreak fast
Ġsuic idal
tw itter
Ġreg ul
Ġcase book
Ġdepress ed
ama zing
pre tty
Ġyum my
Ġcann abis
b el
b ea
d en
e ad
k a
m iss
p lease
Ġ ve
re al
re ase
Ġs mo
Ġc al
Ġc ard
Ġl ady
Ġp ark
al ity
Ġb out
Ġb ag
Ġf ore
Ġf igure
ar n
ic le
Ġa c
Ġst ep
is ion
Ġch ill
ro om
Ġde f
Ġin sp
Ġal ong
Ġv ote
um b
Ġbe er
Ġhe re
Ġsp r
Ġpr op
ex ercise
Ġun i
ag er
iz z
if t
man y
Ġse vere
Ġtea m
Ġrel ationship
Ġacc ount
Ġimp rove
Ġsing le
Ġbus iness
for m
Ġsur prise
Ġhal f
Ġtreat ment
Ġweb site
Ġcri pp
Ġtherap y
Ġfil m
onest ly
l ic
l ong
l ish
n ect
s olut
t a
z z
Ġ ice
Ġs y
Ġs on
er o
Ġl ayer
Ġg reen
Ġw ear
Ġp en
Ġp et
Ġp op
Ġp ack
Ġp ract
Ġm illion
Ġb ot
Ġh ow
Ġh ol
Ġh old
en s
or ge
om mend
st art
le ave
ing er
ke y
Ġe v
Ġe vent
Ġa ut
Ġre t
ad d
Ġst ra
Ġli ght
ent y
is m
ea p
Ġch urch
Ġsh o
Ġde ad
Ġde mo
Ġin s
Ġin v
Ġv ac
ess ion
ab ility
ation al
la me
Ġcon d
Ġevery body
sh ine
Ġpre sent
Ġsomet imes
Ġfin al
if y
Ġrec ommend
Ġav oid
Ġinter view
Ġsur v
every one
Ġmem ory
Ġhar m
Ġdon as
hal ala
not hing
Ġintern et
some one
Ġspe cial
solut ely
b ed
c ra
d le
g ly
g irl
i er
j or
s un
u ght
v y
Ġ ent
Ġ ir
Ġs ol
Ġs ession
Ġt il
Ġt own
Ġc or
Ġc ou
Ġl ine
Ġg arden
Ġg orge
Ġw ind
Ġw ife
Ġm id
Ġb ody
Ġf r
Ġf at
Ġh mm
it al
ic h
Ġre f
Ġnot e
Ġst upid
ri ble
me an
ent ly
Ġan g
Ġch ee
ate d
Ġde sign
ie f
ul ous
Ġal l
Ġv ie
Ġex actly
as k
Ġri d
Ġpo or
Ġen g
Ġpro ject
Ġcom m
Ġaw ake
mo re
Ġle vel
Ġgr oup
Ġhot line
aw e
Ġrec over
Ġart icle
sw eet
Ġshop ping
Ġoff ice
gu y
Ġhum an
Ġpan ic
g ot
h o
i ally
m ing
u ter
v ing
w onder
Ġ om
Ġ 12
re et
Ġt em
Ġd ue
Ġc am
Ġc ream
an s
an other
Ġg row
Ġw ood
Ġw ine
Ġp a
Ġm is
Ġm um
Ġb ear
Ġb ud
Ġn on
Ġn ick
Ġf ru
Ġh ist
en ge
ot h
st ant
le y
Ġa h
Ġst yle
Ġk it
ct ion
Ġch at
Ġy ou
ant astic
Ġj ury
Ġcon nect
Ġsp ir
row n
Ġcom ment
Ġmo on
Ġsun shine
Ġwh atever
ren t
gg er
act ually
ore d
Ġcont act
ac ter
Ġcomp uter
Ġstud ent
Ġav id
Ġbo x
Ġcle ar
Ġdra w
Ġwonder ful
Ġter m
Ġpu sh
Ġsa fe
Ġposs ible
may be
ril l
Ġres ult
Ġinst ead
Ġcele br
Ġcontin ue
Ġvie w
c oh
h n
h ate
h elp
h mm
l in
n ing
t r
t otally
Ġ is
re member
Ġd ate
Ġd ig
Ġd ist
Ġc r
Ġc er
Ġc ake
Ġc old
Ġw ild
Ġp ress
Ġm et
Ġm atch
Ġm ain
Ġm ass
Ġm ama
al y
al ways
Ġb reat
Ġb ike
Ġb lame
Ġf ill
Ġf ast
Ġf la
Ġf low
ou bt
Ġe ither
Ġa re
Ġa sleep
Ġth an
th ough
il ar
id ay
id ent
Ġan t
Ġch oice
Ġde sp
ast e
Ġr oll
Ġthink ing
Ġman age
Ġdo c
Ġdo ctor
Ġjo hn
Ġpro gra
Ġany more
Ġfa il
ag ree
ber ry
Ġment ion
li fe
Ġof ten
ne y
Ġdr op
Ġrel ate
Ġacc ept
Ġimp ort
Ġon ion
Ġsit uation
Ġpain t
Ġep ic
Ġchar acter
Ġsex y
ib ly
Ġann oy
Ġprom ise
Ġda ily
Ġma jor
dr ink
Ġbeh ind
bea utiful
Ġpract ice
Ġvac ation
Ġcond ition
Ġchee se
Ġhist ory
coh ol
3 4
b ad
c ut
f uck
h ap
i el
o s
p ly
r al
r or
s omet
t ion
u ss
u ce
v ious
w here
y ear
Ġ er
Ġ at
Ġs low
Ġs outh
Ġt ip
Ġd ouble
Ġc oun
Ġl ately
Ġg ym
Ġp eep
Ġm el
Ġm ap
Ġm ail
Ġb an
Ġb ow
Ġb ul
Ġb ath
Ġb right
Ġn at
Ġf ake
Ġf ab
Ġf eed
Ġh is
en n
it ing
ou l
Ġe con
Ġre v
Ġnot ice
ri p
ri st
il i
ol ate
ell ow
Ġget ting
id ence
Ġan ger
Ġch all
Ġsu d
Ġal cohol
Ġj ack
Ġj oy
Ġr ad
Ġbe gin
Ġcon stant
ist ic
Ġad mit
ud ge
Ġen er
Ġpro cess
Ġaw ard
Ġpre vent
Ġro ad
Ġsw im
up date
Ġbu ild
ang er
Ġser vice
Ġdr unk
Ġsupp ose
Ġperson al
Ġmed ical
Ġcl in
Ġtr ouble
sc ri
Ġmar ry
Ġab use
tw eet
Ġaf fect
for get
ron t
Ġdra g
Ġcre ate
Ġserious ly
Ġmod el
bu y
eal ous
Ġpap er
bel ieve
Ġcripp ling
Ġhol iday
Ġcou ple
Ġare a
hap s
Ġecon om
Ġchall enge
d it
d ra
f all
l it
t ired
u c
y a
y ep
y ond
Ġs ense
Ġt e
er al
Ġd m
Ġc ough
Ġl ap
Ġl ab
Ġg ay
Ġp al
Ġp ur
Ġp ull
Ġp ian
Ġp arent
Ġm ac
al so
al most
Ġb re
Ġb oo
Ġb ank
Ġb ur
Ġb all
el ess
st op
st ud
Ġre sp
ch ange
Ġst and
Ġst reet
ood oo
il ight
un der
ell ent
Ġtw ilight
Ġch ick
Ġch oc
Ġj a
Ġj our
Ġv ol
ur al
Ġr ather
Ġwe ight
Ġwe ird
Ġri se
Ġcon vers
Ġad vice
pp y
Ġper haps
em pt
Ġfor ce
Ġact ivity
Ġco st
Ġbl ood
Ġla w
Ġar rive
Ġse c
iv al
Ġra ce
Ġra ise
Ġhot el
og ra
Ġit s
Ġhealth y
Ġcol lect
Ġtra um
Ġinc red
Ġsk y
oc us
Ġtop ic
Ġdi ffic
Ġnor mal
Ġob se
Ġcur rent
Ġmark et
ann a
Ġpod cast
Ġhom ie
Ġmedic ation
Ġpsych olog
tru e
Ġphysic al
Ġregul arly
Ġsmo ke
Ġfore ver
Ġstra ight
Ġsho e
ught er
Ġcomm un
Ġbud dy
Ġprogra m
Ġimport ant
Ġpian o
Ġconvers ation
b al
b et
b it
c iety
c ourse
d ic
d own
f ort
g le
g ry
g ative
j o
m ust
p ut
w r
Ġs ir
Ġt a
Ġt it
in a
in ation
er n
er y
Ġd en
Ġd et
Ġc reat
Ġc orn
Ġc ous
Ġc out
Ġc ult
Ġc amp
Ġl ack
an a
Ġg l
Ġw oo
Ġp ig
Ġp izz
Ġm ate
Ġm all
Ġm ount
al ready
Ġn et
Ġf ol
Ġf ul
Ġf inger
Ġf ront
Ġf ocus
Ġh at
Ġh onestly
et her
le arn
oo gly
ke ep
Ġe h
Ġa ff
Ġa part
Ġth ree
ri s
Ġli ft
un t
ol ve
Ġk ing
Ġch air
end er
Ġde st
ie s
Ġal low
fe ssion
Ġj e
Ġj ess
Ġv i
Ġv ict
and om
Ġr ate
Ġr ound
Ġbe yond
as ure
go ing
he w
Ġsp am
Ġback gr
Ġso re
Ġpr ayer
Ġpro f
Ġpro fession
Ġcom mon
Ġqu ick
Ġact ive
ren d
pl oy
iv id
ub by
Ġsm ell
Ġsm art
Ġsm all
Ġcont r
Ġass o
Ġtru ly
Ġhapp iness
Ġcra sh
Ġwar m
ug ust
Ġbo ard
po se
Ġred uce
Ġover come
vers ity
Ġter rible
Ġcook ie
Ġless on
exc ite
Ġfre sh
Ġinf o
Ġgrad uation
Ġhor se
Ġdiagno se
Ġlon ely
tom orrow
Ġag ree
Ġmot iv
Ġloc al
Ġprop er
Ġhow ever
Ġsurv ive
Ġent ire
Ġgorge ous
Ġang el
Ġflow er
iel d
Ġchoc olate
Ġtraum a
Ġcous in
Ġcout ure
Ġbackgr ound
b ate
b ig
b oy
b out
c ent
c ure
d am
e fit
f et
h app
h old
h ang
l ight
l ive
m ar
n at
s m
s al
s ad
s uff
w eek
Ġ '
Ġ ver
Ġ ign
re m
Ġs and
Ġs qu
Ġs oul
Ġt al
Ġt ow
Ġt ough
er ry
Ġd oll
Ġd oubt
Ġc ross
Ġl ay
Ġl and
Ġl ame
Ġg ig
Ġw ill
Ġw all
Ġp le
Ġp ink
Ġp ool
Ġp orn
Ġb i
Ġb ill
Ġn a
Ġn er
Ġn ail
Ġf ren
Ġh on
Ġh op
Ġh ubby
at ic
en ter
el ly
st em
oo f
Ġe st
Ġe ff
Ġe sc
Ġa im
Ġa ugust
Ġre lease
Ġth at
ee m
Ġst ore
ra ge
Ġtw ice
Ġy o
Ġsh ot
Ġsh ake
Ġsh ine
Ġde m
Ġde v
Ġde ar
Ġin side
ed u
Ġj udge
Ġj ealous
Ġv al
Ġv oice
Ġex ist
Ġr ow
ig ma
la im
Ġevery day
Ġman ia
sh op
Ġso ciety
pp er
Ġen ter
Ġpr ince
Ġcom b
Ġto oth
Ġpre fer
Ġlo g
Ġhome work
ect ion
Ġwh ether
Ġact ual
ag ine
Ġla zy
pl an
so on
Ġpost er
de c
Ġup load
Ġsc are
Ġtru th
Ġtr ump
Ġtri gger
Ġblo ck
Ġinc rease
Ġab solutely
Ġsk in
Ġstr ange
Ġreg ard
Ġdra ma
Ġtrain ing
Ġhar ry
gu ess
Ġdifferen ce
exc ited
uu uu
Ġear th
Ġru in
eeee eeee
xxxxxxxx xxxxxxxx
Ġmag ic
Ġsy stem
Ġbot tle
Ġeng lish
Ġrecover y
Ġcer tain
Ġsud den
Ġrad io
Ġener gy
Ġclin ical
lit tle
Ġlap top
stud y
ogra ph
Ġpizz a
Ġfol k
Ġcontr ol
suff er
Ġtow ard
b ut
b and
b reak
c ar
c ute
c cess
d ad
e v
f a
f ight
g th
h h
h ard
h our
h igh
i ant
l ie
m um
m ark
p are
p ass
r ation
s ur
t ra
t une
u me
u ate
u sh
v ideo
y cle
Ġs ar
Ġs aw
Ġs ale
in y
Ġd ry
Ġd ire
Ġd ise
Ġc andy
Ġc rush
Ġl y
Ġg lo
Ġg oogly
Ġw anna
Ġp ath
Ġm ic
Ġb low
Ġb oot
Ġb unch
Ġn an
Ġn one
Ġf lo
Ġf ire
Ġf antastic
Ġf ield
Ġh oo
Ġh ole
Ġh ero
at or
et ic
or k
ress ion
el iness
ou rage
Ġe ss
Ġa s
Ġa pe
Ġa head
se y
Ġre ach
ch n
ad o
Ġst alk
Ġst age
ri e
th ought
Ġtw ist
Ġan im
Ġch eap
Ġch rist
Ġgood ness
Ġsh e
Ġsh all
Ġsh out
ut y
ut ure
Ġal ive
Ġv an
Ġr ing
Ġr out
Ġr ich
Ġr andom
Ġfe st
oun ce
Ġwork out
as c
go ver
ru b
Ġad v
Ġpr ot
Ġpro v
sp end
Ġro ot
Ġfa ve
Ġun less
Ġwh o
Ġfor m
Ġdis app
Ġmom my
Ġim age
Ġbir d
Ġexc ellent
act ion
iv ely
Ġra re
de finitely
Ġem p
Ġcont ent
Ġmon t
Ġmon key
Ġor g
Ġcomp et
ole sc
Ġatt empt
Ġcan cer
ict ion
Ġtru st
ail able
Ġcra p
Ġcl ub
Ġacc om
Ġdec ision
Ġsad ness
feren ce
Ġno body
su per
Ġset tle
Ġlow er
Ġho sp
Ġoff ic
Ġexp lain
Ġinterest ed
Ġpu ppy
Ġnor th
wh el
Ġcop y
Ġpot ent
Ġdad dy
Ġteach er
Ġsub ject
Ġru le
Ġair port
Ġlon eliness
Ġpub lic
Ġben efit
Ġcons ider
Ġinsp ir
Ġinsp ire
Ġinv olve
Ġpress ure
Ġfab ulous
Ġconstant ly
Ġeconom ic
Ġjour ney
Ġdiffic ult
Ġprofession al
Ġproper ly
dam n
happ en
Ġdem and
Ġdise ase
a v
a cc
b ar
b ir
b ble
c ake
c ase
c all
d i
d uc
f ar
f oot
g od
h ow
j ust
k ely
l ant
l uck
m ic
m ight
o on
s a
s um
s elf
t ea
v ous
v ote
v ior
v oodoo
w in
w ood
w ise
y et
Ġ i
Ġ own
re sh
Ġs ly
Ġs ear
Ġs ci
on se
Ġt re
Ġt an
Ġt ear
Ġt ong
Ġt able
in ion
er t
er ate
Ġd ep
Ġd iet
Ġd ick
Ġc ent
Ġc ro
Ġc ope
Ġc lot
Ġc ust
Ġc ycle
an gover
Ġg as
Ġw et
Ġw ide
Ġw eed
Ġw ave
Ġw aste
Ġp e
Ġp ill
Ġm ist
Ġm outh
Ġb al
Ġb or
Ġb ell
Ġb as
Ġb other
Ġb urn
Ġb ye
Ġb rown
Ġb ored
Ġf ear
Ġh y
Ġh ea
Ġh ack
Ġh ide
Ġh ath
Ġh ilar
at o
at ar
or able
st er
ke d
Ġa ust
Ġre ject
Ġre spect
Ġth ru
ee ch
Ġst ove
Ġst ren
Ġst ream
Ġst igma
op h
il ly
Ġgo al
ver t
ol ation
ra id
Ġtw it
Ġtw enty
is on
Ġsu it
Ġsu ccess
Ġy ea
Ġne ar
Ġde sk
Ġde bt
ul ar
Ġal right
Ġj ump
Ġv ar
ast y
Ġo cc
Ġmu sc
ur ity
Ġr ub
Ġthank s
Ġsp read
Ġman ager
Ġad ult
Ġad olesc
Ġfun ction
Ġen c
ful ness
lo g
lo ck
us ion
Ġper i
ain t
Ġqu it
Ġqu ote
Ġqu ality
Ġact ion
Ġco z
Ġtweet er
Ġsw eep
Ġbl end
Ġle ft
Ġar m
Ġsch edu
Ġplay let
li ant
Ġexc ept
Ġexc iting
Ġem ploy
Ġwin ter
Ġop tion
Ġcomp are
Ġcomp any
Ġtru ck
Ġacc ord
Ġid ent
Ġdec rease
Ġav ailable
ha ir
ha vior
tw o
Ġfl ight
Ġexper t
Ġrep ort
Ġsl ight
Ġind ivid
su pp
Ġover whel
Ġho st
Ġexp ect
Ġsex ual
Ġcre dit
Ġdisc uss
Ġtherap ist
pro blem
pro bably
Ġda ughter
ril liant
ooh oo
congrat s
congrat ulation
Ġcompl ete
Ġdiagno sis
Ġcount ry
Ġsil ly
Ġmad am
Ġext ra
Ġve gan
Ġcal m
Ġmid dle
Ġcam era
Ġspir it
Ġcelebr ate
Ġmatch book
Ġmass ive
Ġannoy ing
Ġbow l
scri be
Ġobse ssion
Ġcurrent ly
wr ite
Ġcreat ive
Ġnet work
Ġful ly
Ġtal ent
Ġner vous
Ġfren ch
Ġesc ape
Ġprince ss
dec ide
Ġly ric
Ġprov ide
Ġhosp ital
Ġsear ch
Ġclot he
Ġmist ake
Ġhilar ious
Ġstren gth
Ġmusc le
Ġschedu le
Ġindivid ual
a f
a ur
b or
b uck
c l
c el
c ing
c ook
c are
c ept
g n
h y
h it
h ood
h ol
h ouse
h ole
h onestly
k y
k in
k er
l im
m ove
m ind
m other
n ah
o int
o ffic
p ack
r ay
s ch
s ave
v i
w oo
w ear
w alk
y ea
y up
y esterday
Ġ q
Ġ od
Ġ vers
Ġ 34
re c
re me
Ġs in
Ġs ell
Ġs is
Ġs ever
Ġt ight
Ġt end
Ġt um
Ġt im
Ġt ool
Ġt ac
Ġt rend
in o
in al
er able
er sey
Ġd umb
Ġd anger
Ġc u
Ġc ir
Ġc ast
Ġc ru
Ġc ode
an cial
an cy
Ġg n
Ġg er
Ġg ift
Ġm or
Ġm il
Ġm orrow
Ġm ike
Ġn ow
Ġn ah
Ġf o
Ġf u
Ġf le
Ġf ive
Ġf our
Ġf reak
Ġh angover
at ure
en cy
ar ter
om er
st ic
ic ious
Ġe ast
Ġe gg
Ġe duc
Ġa ha
Ġa ka
se vere
Ġre qu
Ġre view
ch a
ch en
ad a
Ġli ving
Ġli kely
ood le
Ġk iss
ce ive
ir m
Ġch em
od ka
Ġy og
Ġne arly
ro y
ro ad
Ġin land
Ġin form
ie d
ed eral
Ġal though
am in
Ġv s
Ġv ine
Ġv odka
Ġmu g
Ġmu se
Ġfe w
Ġfe ver
ab solutely
Ġwe st
as m
Ġsp ot
im p
sh it
sh are
are ly
are ness
Ġdo or
Ġgu il
Ġpr int
Ġpl enty
Ġpro fit
Ġcom ic
Ġcom mit
Ġaw areness
Ġper form
Ġany time
Ġpre pare
ex p
Ġlo ad
per son
em y
Ġqu iet
Ġfor got
Ġco ach
iz ation
ak er
Ġlet ter
ren a
Ġdis ability
pl ish
Ġplay er
if ic
Ġgr ade
Ġim agine
Ġke y
ath y
Ġadd ress
Ġra p
wor ld
int erest
con t
Ġsc reen
Ġor ange
Ġor gan
Ġop inion
Ġass hole
Ġlisten ing
Ġcan ada
Ġfam ous
Ġcl im
Ġcl ue
Ġcl oud
ser ious
Ġapp le
Ġtr ick
Ġtr ans
Ġmeet ing
Ġimp ress
Ġmind fulness
Ġav atar
ha ust
Ġsweet ie
Ġart ist
Ġfl at
br ary
Ġmin i
Ġmin or
Ġno vel
Ġclass ic
Ġbel ly
Ġbel ief
Ġind eed
su ic
Ġpass port
Ġam ong
Ġmem o
Ġdon ate
Ġother wise
do or
Ġsn ack
fun ny
Ġcur ly
Ġpot ter
Ġcongrat ulation
hal f
Ġhun gry
Ġdel i
Ġresearch er
arent ly
Ġmedic ine
Ġbut ter
Ġbut ton
Ġseason al
Ġproduct ive
com ing
Ġgrand ma
Ġregul ar
Ġspr ing
Ġimprove ment
Ġpen ny
Ġev idence
Ġret urn
cra zy
Ġfr ank
Ġref resh
ho st
Ġfru it
Ġfru st
Ġkit chen
Ġspir al
Ġbreat h
Ġant i
ral ia
somet hing
vious ly
Ġcoun s
Ġpur pose
Ġbre ast
Ġsec ret
Ġincred ible
Ġcommun ity
Ġta x
Ġcorn er
Ġcult ure
Ġmount ain
Ġprof ile
Ġasso ciate
Ġmotiv ation
Ġest eem
Ġdire ct
Ġnan ny
Ġflo or
Ġess ay
Ġanim al
Ġchrist ian
Ġorg andy
Ġaccom plish
Ġinspir ation
bir thday
sum mer
Ġsly pe
Ġtong ue
Ġcust omer
Ġbas ically
Ġadolesc ent
sch ool
Ġod d
Ġvers ion
Ġsever al
Ġtac o
c an
c lass
d is
d rive
d inner
f act
f antastic
g en
g ic
h od
h ur
h and
h ath
i us
j oke
k id
l er
l ay
l ate
m ale
n a
n or
n ext
o ck
p a
p ic
p ol
p od
p ast
p ha
p ower
s ion
s end
s ong
s im
s ub
s ym
s ense
t oo
t est
t own
u h
u ggle
v a
v ation
w ich
w berry
x y
z il
Ġ ay
Ġ oo
Ġ um
re g
re w
re ason
Ġs an
Ġs am
Ġs way
Ġs em
on a
on y
on de
Ġt ot
Ġt ur
Ġt ree
Ġt aste
Ġt enn
in ter
in ate
Ġd an
Ġd at
Ġd ri
Ġd ish
Ġd ip
Ġd iv
Ġd uty
Ġc oo
Ġc ab
Ġc up
Ġl ar
Ġl ou
Ġl ake
Ġl as
Ġl ord
an oid
Ġg ap
Ġg ro
Ġg ain
Ġg rill
Ġg iant
Ġw ic
Ġw ard
Ġw eak
Ġp s
Ġp it
Ġp ly
Ġp un
Ġp ant
Ġp iss
Ġp ail
Ġp olar
Ġm i
Ġm am
Ġm ill
Ġm ast
Ġm ath
Ġm ode
ss y
Ġb on
Ġb ay
Ġb le
Ġb es
Ġb read
Ġn ut
Ġf ra
Ġf uture
Ġh ill
Ġh ook
Ġh all
Ġh us
Ġh ip
en ess
et ely
or m
or ay
or id
or ia
om n
el le
el ine
st ay
st ar
st ru
st uff
le g
ic y
ic ate
Ġe s
Ġa p
Ġa u
Ġa unt
ve st
se c
Ġre pe
Ġre cess
ch ar
Ġth row
ad ow
Ġst ri
Ġst one
Ġst eal
Ġli brary
il er
un d
un te
Ġgo ld
Ġgo sh
id es
ra se
Ġk n
Ġk ar
Ġk elly
ap er
Ġch a
Ġch ip
Ġch ann
Ġy ep
Ġy ah
Ġy ak
Ġy outh
Ġy ellow
Ġy ork
Ġne gative
Ġsh ut
Ġsh ip
Ġsh ape
ro b
Ġde ck
Ġde mon
Ġin fin
Ġin no
am ine
ear ly
Ġj u
Ġj am
Ġj im
Ġj ersey
Ġtime s
Ġsee k
um ent
Ġmu r
Ġmake up
and on
Ġbe g
Ġbe havior
ab it
Ġwork er
Ġwork ing
as ion
ide mic
ure l
Ġcon v
Ġcon ference
Ġu h
Ġu gh
Ġsp ort
Ġsp eech
Ġman go
sh ow
ci f
Ġad orable
Ġpo ke
qu e
Ġpr ove
ment al
Ġcom fort
lo vely
Ġaw e
ip e
Ġpre s
ex actly
Ġro le
Ġlo ss
Ġfa ir
Ġwait ing
Ġbad ly
Ġph rase
Ġmo st
Ġqu arter
Ġfor give
Ġco ck
Ġsleep y
Ġcut ie
Ġbl ast
pl ate
Ġfin ancial
Ġplay ing
Ġpart ic
Ġbed time
Ġme al
Ġthe ory
Ġexc use
Ġra pper
Ġmusic al
igh bor
Ġser ies
Ġor ig
Ġtra vel
Ġcomp lain
Ġel ect
pt ion
Ġrel ative
Ġbab e
Ġout ta
any way
Ġcar ry
Ġab s
Ġab andon
Ġwith in
Ġcle arly
mom my
Ġep idemic
Ġreg ret
Ġsl ash
su me
Ġho ck
Ġdepress ive
Ġchar ge
Ġexp lo
Ġcook ing
Ġmem ber
Ġcre ep
Ġteen ager
gr ade
Ġann i
Ġprom ote
Ġfoot ball
Ġdown load
Ġposs ibly
Ġleg it
hear t
hear sal
Ġhu h
pr om
Ġpri ze
Ġdel ete
Ġfre ed
Ġgrad uate
olut ion
spect ive
Ġsim ilar
Ġsim ply
Ġgen er
Ġsal t
Ġmot or
Ġconf use
Ġus ual
Ġbot tom
Ġev il
ier ce
Ġir on
Ġir rit
Ġcor re
Ġwind ow
Ġconnect ion
Ġdist ance
Ġmet hod
Ġfla vor
Ġdesp ite
somet imes
Ġnat ure
enn ial
dra w
Ġte chn
Ġresp onse
under stand
Ġchick en
Ġpsycholog y
bet ter
jo in
Ġaff ord
Ġje an
Ġvi ol
fet ime
nat al
Ġsand wich
Ġdoll ar
Ġple asure
Ġeff ort
Ġscare d
Ġsudden ly
fa vorite
Ġsaw buck
rie f
Ġfest ival
Ġmont ane
Ġpotent ially
Ġtre k
Ġaust ralia
Ġenc ourage
Ġperi od
Ġident ify
Ġoverwhel ming
aur ant
Ġdanger ous
Ġtot al
Ġtenn is
Ġmill ennial
Ġbes ides
Ġhus band
Ġrepe at
Ġrecess ion
unte er
Ġchann el
Ġinfin ity
b s
b ra
b urn
b last
b ling
b by
c at
c ri
c ross
d om
d one
d ang
d og
f ly
f ill
f eed
f ree
f igure
g ar
g ust
h un
i k
i at
j ury
k en
k ind
k new
l l
l on
m en
m ally
m od
m oney
n ie
n am
o ir
o ff
p or
p lace
r op
r od
r oll
s uck
t urn
u ous
u age
v al
v age
w een
x ious
Ġ 2
Ġ il
Ġ ut
Ġ ide
Ġ our
Ġ ult
re r
re y
re search
Ġs en
Ġs ink
Ġs orrow
Ġs oup
Ġs olution
Ġt en
Ġt ol
Ġt ut
Ġt ire
Ġd ir
Ġd ye
Ġc in
Ġc ell
Ġc od
Ġc rit
Ġc enter
Ġc laim
Ġl ang
Ġl oud
Ġl oose
an ch
Ġg e
Ġg ut
Ġg am
Ġg ag
Ġg ender
Ġg host
Ġw at
Ġw ire
Ġw ise
Ġp ound
Ġp air
Ġm art
Ġm ild
Ġm ater
Ġm att
Ġm ult
al o
al right
Ġb y
Ġb ri
Ġb iz
Ġb ust
Ġb og
Ġb ible
Ġb rush
Ġb rilliant
Ġb oohoo
Ġb arely
Ġn u
Ġn ic
Ġn ur
Ġn ational
Ġn oodle
Ġf ish
Ġf ellow
Ġh er
Ġh am
Ġh og
Ġh oney
Ġh oop
Ġh onest
Ġh abit
en e
ot ic
et amine
it h
it or
it ation
it amin
ar m
om b
om y
el v
st r
st ress
st ick
st ruggle
le ast
le ment
ic o
ic ian
ing o
Ġe go
Ġa ud
Ġa pt
Ġre serve
Ġre fer
Ġre action
Ġre hearsal
ch er
ch et
ch ill
Ġth reat
Ġth ous
Ġth read
Ġth ird
Ġth rill
Ġst om
Ġst oke
ri f
Ġli m
Ġli mit
Ġli fetime
th ree
th erap
il st
il ing
un a
me et
ake d
ter n
ra ss
ra ise
Ġk at
Ġan aly
ir on
ap an
Ġch is
Ġch ase
end a
Ġy ard
Ġne ighbor
Ġsh am
Ġsh ame
Ġsh ift
Ġde ment
Ġde dic
ut ish
Ġal i
Ġal pha
Ġj unk
Ġj apan
Ġv ast
Ġex haust
ur ance
ind eed
app arently
Ġr ice
Ġbe an
Ġfe ature
Ġfe male
as al
Ġu gly
im ent
ist ent
sh i
Ġso ft
eek y
ci ation
Ġad m
Ġpo ison
ud dle
qu el
qu il
qu ite
Ġen v
Ġen emy
our ce
ort ion
Ġpr ice
be at
Ġaw ful
us ually
Ġto e
Ġpre d
Ġph ot
ect ive
Ġwh oop
Ġwh ilst
Ġfor um
Ġco ast
Ġsw ear
Ġsomet ime
Ġbl ink
Ġbl ip
Ġbl onde
Ġdis gust
Ġla urel
so cial
Ġsome day
Ġsome body
Ġsome how
Ġle an
Ġar c
Ġgr an
Ġint ense
Ġbu g
Ġbu sh
Ġbu bble
ath on
Ġpost natal
Ġthe re
Ġse at
Ġra b
Ġmiss ion
Ġgirl friend
de al
ign ment
wor d
Ġama z
Ġup on
Ġup set
Ġread ing
Ġser ve
Ġcol l
Ġsc ary
ne gative
Ġop p
Ġtra sh
Ġtra ffic
Ġtra iler
Ġass ume
Ġstud io
Ġperson ality
Ġwit ch
Ġcare er
Ġcra ck
Ġapp ro
Ġtr ona
Ġid ol
Ġimp o
Ġon to
Ġout fit
Ġsuffer ing
Ġmar ch
Ġmar ia
Ġmar athon
Ġchild hood
Ġcar ol
Ġbo at
Ġbo om
Ġbo son
Ġfl orid
Ġhand le
br ing
br other
Ġaf raid
for got
Ġsk ip
Ġsk ull
Ġno ise
Ġrest aurant
Ġhigh ly
ach e
Ġhair cut
Ġover all
vers ary
ph one
ph oto
Ġpass ion
Ġchar m
Ġchar ity
Ġexp ress
every thing
Ġdrink ing
air s
Ġpu ssy
Ġam ount
Ġworth less
Ġdi ab
Ġdi ffer
Ġvis ion
Ġrem ix
Ġconcer n
Ġhum or
ib ility
Ġnor mally
Ġann a
Ġann ounce
ger y
Ġsn uggle
Ġdisc over
wh atever
Ġpot ato
Ġstate ment
olog y
olog ical
pr ay
Ġmod ern
part um
Ġsug ar
ton ight
Ġfre qu
Ġear n
bo ard
Ġpar anoid
Ġpsych iat
Ġbet h
Ġbet ween
Ġdifferent ly
bu ild
tru ly
Ġz one
Ġmix ed
Ġspe cif
Ġcompl etely
Ġcompl iment
Ġpeace ful
Ġbra zil
Ġbless ing
Ġeffect ive
bl ack
Ġsil ent
Ġpol it
Ġmag n
Ġext reme
Ġsuggest ion
Ġbeh ave
Ġconf irm
Ġus ually
Ġcal la
Ġdef end
Ġspr ay
Ġsurprise d
Ġcripp le
Ġstra wberry
Ġins omn
Ġinv ite
Ġpresent ation
Ġharm ful
Ġsol o
Ġref lect
Ġis land
Ġis olation
Ġdesp erate
Ġfail ure
Ġer ror
Ġslow ly
Ġbath room
Ġfeed back
Ġrev ise
Ġrev ision
ili pp
Ġvol unteer
Ġincred ibly
Ġdet ail
Ġapart ment
Ġdest roy
Ġign or
rem ely
Ġwill ing
Ġhon or
Ġdev il
Ġcomb at
Ġcertain ly
tra ck
Ġsar an
Ġglo bal
Ġboot y
Ġas lant
Ġrout ine
Ġdisapp oint
Ġemp ty
Ġcompet ition
Ġoffic ial
bar rass
luck y
Ġcro chet
Ġbor ing
Ġdesk top
Ġemploy ee
Ġgn aw
Ġmuse um
Ġguil ty
interest ing
Ġclim b
serious ly
suic ide
Ġrefresh ing
Ġcouns el
sym ptom
Ġdat um
Ġdri ver
Ġwic ked
Ġanni versary
Ġfreed om
rop ri
Ġlang uage
Ġbog ie
Ġthreat en
Ġthous and
Ġdement ia
Ġspecif ically
Ġinsomn ia
1 4
a ff
a ult
b at
b orn
b us
b ye
b ored
b log
c a
c o
c al
c il
c ap
c atch
c old
c ount
d ress
d el
d ed
d ear
d es
d est
d ance
d ude
d ifferen
d rug
d oubt
e ward
e mail
e ither
e iling
f l
f r
f el
f am
f low
f are
f ire
f ore
f ace
g a
g on
g ame
g ue
h on
h ar
h ea
h am
h um
h ide
h ave
i pp
l f
l oll
m at
m ine
m atter
m illion
n al
n ic
n ize
p s
p ick
p arent
r one
r ate
r ough
r ound
r odu
s ia
s ince
s ister
t ee
t end
t ie
t ail
t een
t ext
u cc
v ant
v int
w el
w is
w ide
w rit
x ual
y ou
y um
z er
Ġ ou
Ġ ic
Ġ ow
Ġ ooh
Ġ era
re s
re st
re lax
re sent
Ġs at
Ġs el
Ġs now
Ġs ip
Ġs ame
Ġs ize
Ġs aint
on line
on to
Ġt ed
Ġt att
in ary
er ve
Ġd c
Ġd in
Ġd ar
Ġd om
Ġd un
Ġd uck
Ġc a
Ġc ow
Ġc art
Ġc ine
Ġc as
Ġc our
Ġc li
Ġc ater
Ġc ub
Ġc ere
Ġc ash
Ġc ouch
Ġc lock
Ġc eiling
Ġl am
Ġl em
Ġl oop
an sit
Ġg ee
Ġg un
Ġg ent
Ġg rief
Ġg rey
Ġw ee
Ġw ol
Ġw ale
Ġp in
Ġp ie
Ġp ud
Ġp ix
Ġp up
Ġp unch
Ġp ump
Ġp raise
Ġm er
Ġm en
Ġm ong
Ġm otion
Ġm ason
al th
Ġb a
Ġb ee
Ġb itter
Ġb um
Ġb ite
Ġb ree
Ġb ang
Ġn ep
Ġn ar
Ġn ine
Ġn ude
Ġn asal
Ġf ry
Ġf ur
Ġf ool
Ġf ait
Ġf urn
Ġf ederal
Ġh en
Ġh el
Ġh eap
at a
en ever
ep end
ot ing
it i
it s
it er
it ate
it ure
it ude
or ce
ar ound
ar ily
om a
om ant
st ood
st urdy
st rip
st airs
le d
le e
le ad
le vi
ic ulous
Ġe ch
Ġe ight
Ġre ci
Ġre ven
Ġre ceive
ch y
ch urch
Ġth us
ad rone
Ġst ation
Ġst amp
Ġst orm
Ġst eward
ri b
ri ed
ri age
ri de
th or
il os
un g
un i
Ġgo ver
Ġgo lf
me d
me di
ver ine
ol a
ent ist
Ġk en
Ġk yle
Ġk elv
Ġan xious
is ma
ea sy
ce an
Ġch i
Ġch eeky
Ġy er
Ġy up
ate g
Ġne g
Ġne at
Ġsh ade
ro id
ro be
ro ken
Ġde b
Ġde fe
Ġde bate
Ġin k
Ġin vest
ink le
ul a
ul ner
ill a
Ġv ow
Ġv ent
Ġv ice
Ġv itamin
Ġv ulner
Ġsee d
Ġpic nic
Ġmu d
Ġmu sh
ind er
es pe
and a
and er
and al
Ġr ay
Ġr ite
Ġr ud
Ġr hy
Ġbe friend
ab y
Ġwe ep
Ġwork shop
Ġhe at
Ġhe ck
Ġcon se
Ġcon man
Ġevery where
thank s
he el
Ġsp ear
Ġsp ider
Ġman ic
Ġman ife
ist ant
sh ut
ci ous
Ġpo le
qu ick
pp ling
Ġfun d
Ġen light
Ġgu ide
Ġgu ard
Ġgu est
ia c
Ġpr onto
Ġpl ant
Ġjo int
Ġpro g
Ġpro be
ble ss
Ġhelp ing
Ġhelp ful
be er
Ġto ast
Ġpre m
Ġpre view
ex per
Ġro sy
per fect
Ġph ilipp
Ġmo re
Ġmo ck
em otion
Ġun cle
Ġqu een
Ġwh enever
Ġfor th
Ġco ke
iz ed
Ġsleep less
Ġsw ing
Ġbl ah
Ġbl iss
Ġla unch
mo vie
Ġsome where
Ġfin ale
sic a
Ġar my
Ġbr unch
if ied
Ġreal ity
man age
Ġgr ant
Ġim m
Ġim bal
Ġim medi
Ġwr iting
Ġheal ing
Ġint o
Ġint rodu
gg y
gg ie
Ġbu zz
Ġpost partum
Ġme at
Ġadd ition
Ġse rena
Ġra pe
ass ion
de bate
wor ry
Ġsure ly
og nize
Ġup coming
Ġem barrass
Ġit aly
aw ake
Ġrec ently
Ġcont est
Ġcont ract
Ġser ver
Ġwin ner
Ġsc ar
Ġsc rew
ount ain
Ġcomp assion
Ġass ignment
Ġatt end
Ġatt ract
Ġcan cel
Ġfam ili
Ġwar n
Ġrel ief
Ġcl ip
ere d
rat ing
ward s
sit ive
Ġmar vel
Ġchild ren
Ġsing er
Ġsing ing
Ġbo b
Ġmight y
Ġrain y
Ġfl u
Ġfl our
Ġfl ick
br ate
Ġfight ing
Ġsk ill
hope fully
Ġrep lace
Ġstr ing
da ily
Ġeas ily
Ġsuper man
ple asure
vent ion
Ġho oray
Ġoff end
Ġter min
Ġfan cy
fri dge
mon y
mon th
Ġpat tern
Ġdon ut
Ġrem ove
Ġbar ley
gr ad
Ġaddict ed
Ġsn ap
Ġob tain
Ġob viously
wh oop
Ġdown town
Ġcur se
Ġposs ibility
Ġexcite ment
cy cle
hear d
olog ize
pr ince
pr oud
Ġgra b
Ġgra ss
part y
Ġpri or
Ġpri son
Ġhun t
Ġdel icious
Ġinf l
bo x
follow er
Ġpar am
Ġres ource
Ġkill er
Ġsub mit
min ute
set tle
tru st
Ġz ero
Ġsim ony
Ġgen u
Ġbase ball
Ġhor rible
Ġjust ice
Ġproduct ivity
bl ue
Ġpol ice
Ġpol icy
Ġpub lish
Ġag enda
Ġext remely
Ġphysic ally
Ġcap ital
Ġcontin uous
Ġve sica
real ize
Ġsmo oth
Ġac ross
Ġdef ic
ta x
zz le
Ġsy n
Ġpet er
ens ion
ens ive
Ġaut om
eap on
Ġsho ck
Ġrecommend ation
Ġsol ve
Ġwind y
Ġall ay
Ġrid iculous
Ġeng age
Ġtem por
Ġnon member
Ġcelebr ity
Ġdist ract
Ġcr unch
Ġbreat he
Ġfla g
Ġmajor ity
fuck ing
Ġmel isma
Ġban ish
Ġban ana
Ġbul ly
Ġswim ming
Ġbuild ing
Ġlab el
eless ness
Ġresp ond
under stood
Ġja zz
Ġblood y
Ġsec urity
Ġobse ss
Ġpsycholog ist
down load
fort un
Ġvict im
Ġvict ory
Ġspam me
Ġasso ciation
Ġver y
Ġign ore
Ġsqu are
Ġbi kin
Ġval ue
shop ping
Ġenter tain
Ġcomb ine
Ġskin ny
Ġregard less
eeeeeeee eeeeeeee
xxxxxxxxxxxxxxxx xxxxxxxxxxxxxxxx
Ġtoward s
break fast
hh hh
Ġmic rod
Ġstalk er
thought s
Ġrout e
Ġprot ect
Ġdisapp ear
Ġoffic ially
Ġi ris
Ġown er
Ġsci ence
Ġbal ance
Ġhea vy
vert ise
supp ort
cept ion
offic ially
Ġcru el
Ġger many
Ġmor on
Ġmil k
Ġnow here
Ġfo x
Ġfu el
Ġeduc ate
Ġrequ ire
Ġchem ical
Ġyog a
Ġdeli ver
Ġbreast feed
pod cast
Ġlar ge
Ġlou is
Ġble ed
Ġstri ke
Ġgold en
Ġinno cent
Ġjim my
Ġmur der
Ġmost ly
Ġorig inal
prom ise
Ġirrit ability
cri ppling
hun gry
lon ely
nam on
Ġdir ty
Ġcin namon
Ġnic ely
Ġhog tie
Ġaud io
therap y
Ġanaly sis
iron ment
Ġadm ire
Ġenv ironment
Ġpred ict
Ġrab bit
Ġamaz on
Ġimpo ss
Ġdiab ete
ropri ate
hea vy
vint age
Ġtatt oo
Ġcour t
Ġlem on
ansit ion
Ġgent le
Ġnep hew
Ġfait h
Ġfurn iture
omant ic
levi ate
Ġreci pe
Ġkelv in
Ġdefe at
espe cially
Ġmanife st
Ġenlight en
Ġimbal ance
Ġintrodu ce
Ġfamili ar
Ġbikin i
Ġmicrod ot
a u
a z
a ut
b i
b on
b ol
b ank
b ish
b ud
b ird
b rush
b rilliant
b oohoo
b roken
b aby
c re
c op
c ry
c am
c ur
c orn
c up
c rat
c lose
c ele
c lin
d m
d ie
d ream
d oc
e y
e ater
f an
f at
f il
f ab
f ine
f ix
f reak
f tw
f air
f uture
f ederal
g ay
g ig
g ain
g ree
g arden
h ot
h is
h ill
h ile
h ug
i h
i ot
j a
j u
j ealous
k ing
k ill
l ady
l ater
l ord
l ayer
l oma
m et
m ood
m id
m is
m all
m us
m ix
m ath
m ama
m atic
n on
n one
n ment
n ame
n ote
n ational
o en
p ay
p en
p op
p ain
p ark
p ump
p athy
r ad
r un
r ant
r um
r ange
r ition
s l
s en
s ing
s il
s la
s ick
s ire
s ix
s aw
s igh
s lin
t al
t old
t rip
u um
u gg
u ssion
v is
v ite
v ia
v ity
v ile
w ill
w ind
w are
w ire
w ife
w hew
w ith
x ic
y o
y al
y ah
y ru
y og
z u
z ard
z iness
Ġ ol
Ġ if
Ġ oop
Ġ 14
re ply
Ġs i
Ġs ep
Ġs ight
Ġs ane
Ġs izz
on s
on in
on ion
on as
Ġt i
Ġt ar
Ġt ic
Ġt ee
Ġt ent
Ġt ab
Ġt all
Ġt orn
Ġt ag
Ġt act
Ġt ang
Ġt ail
Ġt iny
Ġt asty
Ġt ension
in ar
in st
in es
in ely
in vite
Ġd u
Ġd y
Ġd ome
Ġd one
Ġd ell
Ġd are
Ġd ough
Ġd rain
Ġd uff
Ġd ub
Ġd well
Ġd ull
Ġd read
Ġd irt
Ġd ivid
Ġc el
Ġc ame
Ġc ath
Ġc oup
Ġc rown
Ġc ateg
Ġl ad
Ġl ect
Ġl oll
Ġl ung
Ġg al
Ġg ot
Ġg ar
Ġg ri
Ġg ir
Ġg um
Ġg ala
Ġg rip
Ġg lee
Ġw is
Ġw ight
Ġw ash
Ġw here
Ġw ane
Ġw heel
Ġw eapon
Ġp i
Ġp y
Ġp ep
Ġp ee
Ġp il
Ġp ed
Ġp as
Ġp ure
Ġp ort
Ġp ity
Ġp int
Ġp unk
Ġp lain
Ġp ierce
Ġm b
Ġm at
Ġm as
Ġm ig
Ġm ish
Ġm ouse
Ġm ash
ss ert
al b
al se
Ġb in
Ġb ou
Ġb one
Ġb end
Ġb atch
Ġb ah
Ġb uck
Ġb orrow
Ġb uff
Ġb ark
Ġb ass
Ġb ore
Ġb ull
Ġb illion
Ġb ask
Ġb erry
ion ist
Ġn igh
Ġn iece
Ġn asty
Ġn aked
Ġf i
Ġf ant
Ġf ort
Ġf ame
Ġf ile
Ġf ather
Ġf let
Ġf ade
Ġf alse
Ġh m
Ġh ic
Ġh int
Ġh ike
at ing
at ory
at ically
en g
en o
en ough
ep h
ot ta
ot onin
et a
it ute
it zer
or s
or ate
or ial
ar re
ress o
el and
epress ant
st al
st ation
st yle
st upid
st itute
le s
le dge
le vant
ic ar
ic ip
ic ated
Ġe qu
Ġe dit
Ġa x
Ġa ch
Ġa id
Ġa ven
Ġa che
Ġa rena
se m
se em
Ġre ck
Ġre ma
Ġre ward
Ġre nt
Ġre sume
Ġth ee
Ġth is
Ġth ro
Ġth igh
Ġth umb
Ġth ief
Ġth rough
Ġst at
Ġst em
Ġst reak
Ġst ock
ri ous
op ical
op tion
Ġli p
Ġli qu
one sia
th er
th an
il ation
un less
me ss
me mo
me dic
ver se
ter y
ent less
ent ial
id y
id ea
id ate
id ation
id epressant
ra h
ra p
ra ine
Ġk ore
Ġk ris
Ġan al
ea ble
ap t
ap se
Ġch al
Ġch op
Ġch ap
Ġch ine
Ġch uck
Ġch alk
Ġch ile
Ġch amp
Ġch oir
Ġch ico
Ġsu cc
Ġsu spect
Ġy e
Ġy ucc
ate gy
ge d
Ġne ck
Ġne cess
Ġsh el
Ġsh elf
Ġsh eep
Ġsh adow
Ġwor m
ro ke
ro ck
ro ver
Ġde scribe
Ġde gree
Ġde sire
Ġde ssert
Ġin ner
Ġin sec
Ġcome s
Ġcome dy
ut al
ie re
Ġlike d
ul ia
ul ty
ant ly
ant age
Ġal e
Ġal oud
Ġal ike
Ġal ert
Ġal leviate
am i
ill ain
Ġj ay
Ġj un
Ġj ig
Ġj ail
Ġj ane
Ġv ir
Ġv oc
Ġv oodoo
Ġv oting
Ġv icar
Ġv illain
um in
um ble
ast er
Ġo x
Ġo cean
her o
Ġex plan
Ġknow ledge
Ġmu ss
Ġmu slin
Ġwell ie
ur ally
es ium
Ġr h
Ġr at
Ġr ope
Ġr ough
Ġr ange
Ġr ude
Ġr oof
Ġr omantic
Ġbe ad
as y
ig ion
la re
Ġthank ful
Ġcon cent
Ġcon cept
Ġcon sume
ru p
ru ct
Ġu ser
he ck
Ġsp a
Ġsp in
Ġsp eed
Ġsp ain
Ġsp ect
im ate
im agine
ist ry
ist ration
sh ot
sh all
Ġnight y
Ġso ap
Ġso ftw
ci ss
Ġad option
Ġpo ly
qu ence
pp a
Ġdo se
Ġdo ck
Ġen ch
Ġpl ug
Ġpro sp
ment ion
Ġlife style
Ġfriend ly
Ġhelp ed
be come
Ġaw ait
Ġmay or
sp e
Ġtry ing
Ġper k
Ġper ry
Ġper su
Ġper cent
Ġper spective
Ġany ways
Ġto xic
Ġpre vious
Ġpre scri
Ġpre gn
Ġpre tend
Ġro be
Ġro yal
Ġlo ser
Ġwatch ing
tle ss
love s
Ġph ase
Ġph ilos
Ġph oen
Ġmo reen
Ġsun g
Ġsun burn
em ic
em ploy
em plate
Ġun lim
Ġun fortun
Ġun employ
ect ed
Ġqu al
Ġwh is
Ġact or
ag ue
ag ination
ag na
Ġco re
Ġco al
Ġco le
Ġco gn
Ġuse d
Ġuse ful
iz ard
iz ure
iz oph
Ġsleep ing
ak ing
mer ge
ren ia
Ġsw ell
Ġsw ap
Ġsw eat
Ġsw ift
Ġsw eater
Ġbl ind
Ġbl izz
Ġla und
pl us
Ġche at
Ġle ister
Ġle wis
Ġar il
Ġbr ad
Ġbr ake
Ġbr and
Ġbr andy
Ġsch izoph
Ġmom ma
sk y
Ġpart ner
Ġbed room
Ġgr in
Ġgr oo
Ġgr ind
Ġgr ound
Ġim per
Ġim agination
Ġton y
Ġint end
Ġke g
Ġke el
Ġme re
Ġworld wide
Ġthe y
Ġthe me
Ġse w
Ġse quel
Ġse izure
iv or
iv ate
Ġra ge
Ġmiss y
Ġbea st
Ġbea uty
de ad
wor th
con tr
con stru
ub lic
Ġrec ent
Ġrec ept
Ġrec ognize
Ġmusic ian
Ġcont rib
Ġser mon
Ġser otonin
Ġmon itor
Ġill ust
Ġsc out
Ġsc ream
Ġsc rub
Ġsc ene
Ġsc andal
Ġor d
Ġop era
Ġtra gic
Ġcomp ilation
Ġperson ally
Ġmean ing
Ġmean wh
Ġel ection
Ġel ev
Ġcan on
Ġcan al
Ġwit ness
Ġmy st
Ġmed itation
Ġhapp ily
Ġhead ed
Ġcra b
Ġboy friend
Ġwar ning
Ġwar fare
Ġrel at
Ġrel ieve
Ġrel entless
Ġcl ar
Ġcl ick
ser v
Ġapp ear
Ġapp lic
Ġapp ropriate
Ġtr ansition
Ġacc ent
Ġacc ident
cer tain
Ġimp act
Ġimp air
make s
Ġtri al
Ġout look
Ġout door
any thing
any time
Ġdec ent
Ġdec ade
Ġmar ine
Ġmind set
Ġav ian
Ġsing e
Ġcar go
po or
po int
Ġab ility
Ġkind a
Ġkind ness
tw it
Ġrain ing
Ġfl ip
Ġfl ash
Ġwith draw
br utish
of ten
Ġfight er
Ġaf ric
for ce
Ġmin us
Ġno on
Ġrep resent
Ġrep ublic
Ġstr ategy
Ġsur gery
Ġhigh light
Ġreg istration
ach a
oc ado
Ġsl ap
Ġsl ide
Ġsl ip
Ġsound track
Ġfar mer
Ġind ie
Ġind ia
Ġind ust
Ġind icate
Ġind onesia
su shi
Ġover time
Ġho ly
Ġshare hol
ph ic
Ġter ror
Ġplan et
Ġsign al
Ġsign ific
Ġpu zzle
Ġam p
che er
Ġworth y
Ġdam mit
Ġhar mony
Ġdi ary
Ġdi versity
Ġdi aper
Ġopen ing
sleep y
Ġteen age
Ġhum id
Ġlead er
gr and
Ġbat man
Ġnor way
Ġand roid
Ġprom o
do ctor
Ġfoot ie
Ġob sc
Ġdisc o
Ġdisc ount
Ġdisc ussion
wh o
Ġdeep ly
Ġpick le
Ġsecond ary
over come
Ġcri sis
Ġpast or
Ġexam ple
Ġleg al
ten sion
Ġesp resso
Ġspeak er
Ġprodu ce
exc ellent
Ġvisit or
to gether
ret ch
Ġdark ness
Ġgra ce
Ġgra sp
Ġgra vity
Ġposit ivity
Ġpri de
Ġhun ter
Ġrelax ed
Ġperfect ly
Ġsick ness
Ġtest ing
Ġdel usion
Ġpan cake
Ġear l
Ġinf ant
urch ase
iagno se
Ġcolle ague
Ġmedic ate
Ġafter wards
Ġclean ing
bo at
Ġpsych o
the ory
Ġrob ot
Ġz oo
rel ate
Ġsim ple
Ġgen ius
Ġhor ror
Ġkick ing
we ather
Ġsal ad
Ġsal ary
Ġbra ce
Ġbra cel
Ġbless ed
Ġfit ness
Ġsil k
Ġcele bs
Ġpol ish
Ġmag az
Ġphysic s
Ġgrand dad
Ġremind er
te chn
Ġcap t
Ġcap tain
Ġpap a
Ġpower ful
Ġcons cious
Ġloc ation
bea ch
miss ion
Ġac ad
Ġac ne
Ġac cess
Ġchill ing
Ġuni versity
Ġuni que
Ġuni verse
Ġpen cil
Ġaut o
Ġaut istic
Ġaut ograph
Ġdemo crat
Ġins urance
Ġvac uum
Ġsurv ival
Ġsurv ivor
cra st
girl friend
sun ny
sun dae
Ġfr om
wonder ful
Ġtem ple
Ġtem plate
Ġgrow th
Ġmis erable
Ġbud get
Ġkit ty
Ġkit ten
Ġcelebr ation
Ġmain tain
Ġbreat hing
Ġdoc ument
Ġjohn s
year s
Ġmel ton
Ġbow ling
Ġnat urally
ili ate
Ġsud an
Ġalcohol ic
Ġjack et
Ġeconom y
Ġte quil
Ġlab or
Ġbank ing
Ġbur gh
Ġbur den
Ġball oon
Ġjour nal
Ġvol ley
Ġcollect ion
Ġdiffic ulty
jo b
Ġtit an
Ġtit le
Ġden mark
Ġcult ural
Ġcamp ing
Ġgl ance
Ġdest ination
Ġje wel
Ġvi be
Ġvict oria
Ġquick ly
nat ural
sm ile
sad ly
week end
Ġver ge
Ġsqu at
Ġlay out
Ġgig gle
Ġna an
Ġhop elessness
Ġjudge ment
Ġval ley
Ġval idation
uuuu uuuu
dad dy
ev idence
high ly
Ġsar i
Ġpath etic
Ġas he
asc ade
Ġadv antage
Ġwho a
Ġmont age
di versity
sa fe
tea ch
Ġcent ury
Ġpe er
Ġbrown ie
Ġhy per
Ġhea ven
Ġocc ur
Ġocc asion
Ġrub ber
supp ose
Ġspirit ual
af raid
offic ial
rec ently
Ġtim eline
Ġcu ppa
Ġcir cle
Ġger man
Ġeduc ation
Ġrequ est
Ġyog urt
Ġinform ation
exp ected
Ġminor ity
Ġfrust rating
class ic
nor mal
sim ple
sim ply
Ġay e
Ġsam ple
Ġsem inar
Ġtur tle
inter view
Ġdan cer
Ġdan cing
Ġdip loma
Ġdiv orce
Ġlas er
Ġlas agna
Ġpun ish
Ġmast er
Ġfra ud
Ġap ologize
Ġau ra
Ġau thor
char lie
Ġkn ife
Ġkar ma
Ġju ice
Ġconv ince
Ġpres ence
Ġpres ident
Ġcock tail
Ġpartic ular
Ġelect ro
Ġhock ing
Ġexplo re
Ġgener ation
Ġmotor cycle
Ġconfuse d
Ġcorre ct
Ġviol ent
mod ern
off ice
Ġil leg
Ġsen ior
Ġcrit ic
Ġwire less
Ġmart in
Ġmater ial
Ġmatt ress
Ġmult ip
Ġbiz arre
Ġstom ach
Ġdedic ate
Ġexhaust ed
Ġbean ie
Ġphot ograph
Ġdisgust ing
Ġthere fore
Ġappro ach
Ġannounce ment
Ġdiscover y
Ġfrequ ent
Ġpsychiat ry
Ġignor ance
Ġcounsel ing
des erve
differen ce
flow er
hon or
hum an
Ġou ter
Ġow e
Ġted dy
Ġdar ling
Ġcine ma
Ġcli ent
Ġcere al
Ġwol verine
Ġmong rel
Ġba con
Ġbitter ness
Ġnar ciss
Ġech o
Ġgover nment
Ġmush room
Ġrhy me
Ġconse quence
Ġprog ress
exper ience
emotion al
Ġimm une
Ġreplace ment
Ġparam our
Ġautom atically
Ġtempor ary
Ġimposs ible
cam era
cele brate
clin ical
will ing
Ġol ive
Ġtorn ado
Ġtact ic
Ġtail or
Ġdivid end
Ġcoup on
Ġcateg ory
Ġlect ure
Ġmig raine
Ġmish ap
Ġbask et
Ġflet cher
otta va
Ġach ieve
Ġrema in
Ġthro at
Ġkore a
Ġyucc a
Ġexplan ation
Ġromantic ize
Ġsoftw are
Ġprosp er
Ġphoen ix
Ġunlim ited
Ġunemploy ment
Ġblizz ard
Ġlaund ry
Ġschizoph renia
Ġcontrib ute
Ġmeanwh ile
Ġimpair ment
Ġwithdraw al
Ġafric an
Ġrepublic an
Ġsharehol der
Ġbracel et
Ġmagaz ine
Ġtequil a
a e
a ah
a ft
a oke
b re
b in
b oo
b ow
b ake
b ell
b is
b ie
b ul
b ur
b ub
b ought
b ition
b ipolar
b rown
b ounce
b lock
b arely
c u
c st
c ol
c ell
c ity
c us
c ore
c ause
c amp
c uss
c uddle
d et
d epress
d ly
d ry
d ig
d ue
d ler
d onas
d ulia
d iagnose
e ut
e qu
e ment
e ye
e vent
e ze
f fe
f la
f our
f old
f ront
f ield
f iction
f ancy
g i
g al
g ing
g ent
g am
g ment
g ym
g oogly
h ic
h ack
h ook
h ance
h og
h urt
h oria
i oid
i ency
i que
i ju
j ay
j un
j am
j ack
j ess
j amin
k le
k ward
k ris
l ar
l ack
l ab
l unch
m p
m el
m ad
m ur
m atch
m are
m ile
m ild
m ory
m ade
m pol
m ountain
n el
n ee
n ap
n ope
n ity
n ip
n ative
n iece
n ancy
o or
o ly
o il
o ard
p u
p in
p al
p ion
p et
p ea
p ap
p ink
p ed
p her
p ict
p any
p not
p sych
p ush
p aint
p aper
p adrone
p urchase
r ot
r ite
r and
r atch
r int
r ated
s ar
s ol
s ell
s he
s ist
s ud
s qu
s age
s oul
t ear
t oc
t ify
t empt
t rend
t elle
t ered
u x
u ge
u be
u ence
u ugh
u ition
v o
v ast
v ive
v iet
v ag
v ac
v ict
v oc
v vy
w y
w at
w as
w all
w oman
w arn
x istent
y on
y oung
z a
z or
z one
Ġ ing
Ġ ell
Ġ ite
Ġ ire
Ġ ath
Ġ umb
Ġ ottava
re sp
re esome
re lease
re spect
re com
re ceive
Ġs or
Ġs op
Ġs ake
Ġs od
Ġs ie
Ġs ed
Ġs ack
Ġs ab
Ġs ine
Ġs lo
Ġs old
Ġs ect
Ġs ass
Ġs igh
Ġs ept
Ġs ier
Ġs edu
Ġs ection
on ic
on ize
Ġt or
Ġt ing
Ġt ad
Ġt one
Ġt ap
Ġt am
Ġt ack
Ġt oy
Ġt ort
Ġt ick
Ġt ren
Ġt ote
Ġt ower
Ġt ann
Ġt ape
Ġt ender
Ġt idy
Ġt rover
Ġt ube
in c
in x
in er
in ke
er s
er ous
er ia
er ance
er no
er ica
er ior
er ror
Ġd ot
Ġd or
Ġd op
Ġd od
Ġd ime
Ġd ab
Ġd eed
Ġd im
Ġd ust
Ġd ash
Ġd arn
Ġd rill
Ġd ingo
Ġc s
Ġc ay
Ġc it
Ġc es
Ġc and
Ġc la
Ġc ud
Ġc oh
Ġc ue
Ġc ree
Ġc sc
Ġc uddle
Ġc ascade
Ġl ion
Ġl at
Ġl one
Ġl oun
Ġl ag
Ġl att
Ġl ash
Ġl umb
Ġl ens
Ġl inger
Ġl add
Ġl aker
an o
an sp
an swer
an aly
Ġg a
Ġg ear
Ġg low
Ġg eek
Ġg ib
Ġg oose
Ġg room
Ġg reet
Ġg rub
Ġg yru
Ġw en
Ġw ent
Ġw as
Ġw are
Ġw hing
Ġw reak
Ġw elf
Ġw oke
Ġw izard
Ġp or
Ġp ul
Ġp ear
Ġp la
Ġp ist
Ġp our
Ġp ile
Ġp eak
Ġp ale
Ġp ond
Ġp hew
Ġp oof
Ġp imp
Ġp ipe
Ġp adrone
Ġp acha
Ġm s
Ġm al
Ġm ea
Ġm ut
Ġm ant
Ġm es
Ġm and
Ġm out
Ġm our
Ġm ex
Ġm ach
Ġm ale
Ġm erry
Ġm asc
Ġm aking
al ic
al one
al og
al ize
al uate
Ġb er
Ġb un
Ġb ake
Ġb ol
Ġb od
Ġb ast
Ġb ind
Ġb old
Ġb ise
Ġb ail
Ġb order
Ġb ump
Ġb ounce
Ġb illy
Ġb ison
Ġb aker
Ġb rief
Ġb omb
Ġb ingo
ion ship
Ġn in
Ġn ud
Ġn ause
Ġf er
Ġf ell
Ġf id
Ġf ed
Ġf if
Ġf ife
Ġf lame
Ġf erry
Ġf iction
Ġf ierce
Ġf ountain
Ġh ay
Ġh id
Ġh ur
Ġh atch
Ġh ous
Ġh ire
Ġh ater
Ġh ence
Ġh oc
Ġh ump
Ġh ash
Ġh ula
at re
en er
en om
en ous
en cer
en ery
ep ic
ep age
ot ect
ot ype
et h
et ing
et to
et te
et chy
it an
it le
it ch
it ive
it age
it ial
it ality
or g
or al
or ing
or ative
or gan
or pion
ar b
ar ing
ar row
ar rive
ress ive
om ic
om ing
om eness
el a
el o
el se
el ette
st a
st ep
st one
st ra
st ir
st age
st ock
ou che
ou stic
ou bling
le x
le vel
le ft
ic ed
ic ation
ic orn
Ġe ke
Ġe ve
Ġe dge
Ġe ager
Ġa i
Ġa st
Ġa ver
Ġa ah
Ġa sh
Ġa man
Ġa gg
Ġa mber
Ġa spect
ve y
ve al
se xy
Ġre n
Ġre ar
Ġre un
Ġre me
Ġre vel
Ġre act
Ġre ass
Ġre new
Ġre play
Ġre ference
Ġre char
Ġre wire
Ġre levant
Ġre sem
Ġre constru
ch or
ch oice
ch rist
ch illy
Ġnot ary
Ġnot ify
Ġth ick
Ġth rive
Ġth ril
Ġth under
ad ic
ad ir
ad ise
ad mit
ad vertise
ee ze
Ġst al
Ġst un
Ġst ea
Ġst ack
Ġst ab
Ġst are
Ġst rain
Ġst able
Ġst eak
Ġst rip
Ġst roke
Ġst umble
Ġst ruct
ri a
ri or
ri um
ri pt
ri min
ri but
op en
op ia
Ġli d
Ġli me
Ġli ver
ck er
ood ing
th m
th ou
th us
th ird
th rit
th inke
il o
il t
il der
il ize
il istic
il itate
un ity
un cle
un expected
Ġgo b
me ate
me ster
me mory
ol ly
ol ute
ter noon
ter min
ell o
ell or
ell check
id dy
id eline
ra sound
Ġk ink
Ġk no
Ġk ail
Ġk oto
Ġk ami
Ġk ilo
Ġtw in
Ġtw eak
Ġan i
Ġan ime
Ġan kle
Ġan chor
is y
is er
is or
is ing
is ce
is ive
is olation
ea f
ea s
ir rel
ct ly
ct ively
ap able
ap ology
Ġch or
Ġch ime
Ġch ur
Ġch est
Ġch ore
Ġch ug
Ġch ina
Ġch erry
Ġch illy
Ġsu e
Ġsu ll
Ġsu shi
Ġgood man
Ġgood bye
Ġy ell
Ġy appy
Ġy our
Ġy ike
ate ful
ge on
ge dy
Ġne ut
Ġne ur
Ġne ither
Ġsh y
Ġsh ank
Ġsh ack
Ġsh ould
Ġsh ush
Ġsh ipp
Ġwor st
Ġwor ried
ro ot
ro se
ro vert
Ġde ser
Ġde sc
Ġde vice
Ġin n
Ġin se
Ġin app
Ġin con
Ġin ert
Ġin jury
Ġin equ
ut ch
ul ate
ul um
ed en
ed ge
ant ity
Ġal ter
am en
am erica
fe ar
Ġj et
Ġj ar
Ġj um
Ġj ord
Ġj elly
Ġj ih
Ġj inx
Ġv et
Ġv om
Ġv iv
Ġv ary
Ġv oid
Ġv amp
Ġv irt
Ġv enge
Ġv iny
Ġv ene
ook ie
Ġsee ing
Ġlot us
um or
um ption
ast ically
Ġo as
Ġo xy
Ġex hi
Ġex po
Ġex pose
Ġknow n
Ġmu ft
Ġwell ness
ff iti
ur b
ur bate
art ment
app reciate
es y
es omeness
Ġr ove
Ġr anger
Ġr ural
Ġr ookie
Ġr umor
Ġbe ep
Ġbe half
Ġbe ware
Ġbe stir
ab a
ab lish
ation s
ah a
get ic
get ting
Ġwork place
as leep
as ha
as ury
ig ate
ig ation
ig ue
ig mat
ig enous
Ġri ver
la zy
go e
go al
Ġthank fully
Ġcon ven
ru in
Ġu ter
thank ful
he alth
Ġsp it
Ġsp ark
Ġsp ons
Ġsp encer
Ġsp arrow
Ġsp ellcheck
im ic
im port
im idate
ish as
sh ake
sh ort
sh oot
sh adow
Ġback stage
Ġnight time
Ġwant on
Ġso ak
Ġso viet
ci ple
Ġad ore
Ġad vertise
Ġpo ker
qu ot
qu een
qu estion
pp e
pp ie
Ġfun dra
Ġfun nie
Ġen vel
Ġen sure
Ġen roll
Ġen force
Ġen hance
ous ly
der ly
Ġgu st
ful l
Ġpr at
Ġpr oof
Ġpl ot
Ġpl astic
Ġjo g
Ġjo ey
Ġpro spective
Ġpro crast
ma jor
Ġcom mer
Ġcom bo
Ġlife sa
Ġfriend ship
Ġlook out
lo gy
lo sion
ven ience
iss ant
be c
be st
be gin
be havior
Ġaw kward
Ġaw esomeness
Ġmay a
sp a
sp eak
sp ace
sp berry
sp ray
sp horia
us age
us ual
Ġper man
Ġper ception
Ġper meate
ip ant
Ġany body
Ġpre serve
Ġpre scribe
Ġpre viously
Ġpre ppe
ex am
ex haust
Ġro c
ain ed
Ġlo at
Ġlo ck
Ġlo ver
Ġlo go
Ġlo ving
ame d
Ġtom b
rain y
Ġhome made
Ġfa g
Ġfa ult
Ġfa vor
Ġwait ress
Ġph at
Ġmo ot
Ġmo jo
Ġmo cha
Ġsun da
Ġgive away
come s
em n
Ġun li
Ġun if
Ġun rel
Ġun real
Ġun contr
Ġun certain
Ġun willing
Ġun fold
Ġun icorn
Ġqu ack
Ġqu iz
Ġqu antity
Ġwh y
Ġwh at
Ġwh ip
Ġfor mal
ag anda
ag eable
Ġco zy
Ġco ca
Ġtweet ing
Ġlea f
iz er
iz en
ber land
ty pe
ren e
Ġsw ine
Ġsw oon
Ġsw eden
Ġbl ight
Ġdis play
Ġdis agree
Ġdis aster
Ġla ziness
Ġment ally
Ġche f
Ġche w
Ġle ather
thing s
Ġar ia
Ġar range
Ġar thrit
Ġhear ty
Ġbr ine
Ġbr utish
Ġbr utal
Ġha ik
Ġha voc
Ġsch e
Ġsch olar
Ġplay boy
use d
man ic
man na
Ġlit eral
Ġgr ay
know n
Ġint one
Ġint uition
Ġeat ing
gg ing
up ation
Ġbu gger
Ġbu eno
ath etic
Ġpost age
Ġme ow
Ġbir th
Ġmental ity
Ġthe ater
Ġthe atre
act ive
Ġse al
Ġse ven
Ġse mester
iv ia
Ġra g
Ġra w
Ġra man
Ġra vage
Ġra zor
Ġgirl ie
Ġschool work
ass ault
Ġbea m
de f
de velop
int end
int imidate
ang el
ang ely
con f
con s
con nect
con ception
Ġama ze
Ġkid ney
Ġup grade
Ġup stairs
Ġem bra
Ġit ch
Ġit alic
aw n
aw hile
oot er
ub arb
Ġx ero
Ġsm other
Ġsm elly
Ġsm ith
Ġrec laim
Ġread er
Ġcont ain
Ġcont ext
Ġcont emplate
Ġser ial
Ġcol lie
ac y
ac ke
ac ity
ac ked
pe ze
pe rer
Ġill usion
Ġsc an
Ġsc enery
Ġsc orpion
Ġsc ript
Ġor ch
Ġor ient
Ġbig gin
ne cess
Ġop t
Ġop po
Ġop port
Ġop ioid
Ġtra p
Ġtra ce
Ġtra gedy
Ġtra peze
Ġcomp ar
Ġcomp lex
Ġdr ove
Ġass istant
Ġass umption
Ġsupp er
Ġsupp lement
Ġel f
Ġel ement
Ġend less
Ġatt itude
Ġcan ary
Ġcan yon
Ġhard core
Ġcare ful
Ġmy th
Ġmed itate
Ġbreak down
Ġhead ing
Ġhead ache
Ġcra ft
Ġcra ppy
Ġwar ming
Ġwar rior
Ġrel ation
Ġrel ish
Ġrel igion
Ġgod damn
Ġcl an
Ġhouse wife
hi ya
ug al
Ġbab a
Ġapp re
Ġapp rove
Ġapp oint
Ġapp arently
Ġtr oll
Ġtr oop
Ġtr opical
Ġtr oubling
Ġacc use
cer y
let e
rat or
sc reen
Ġid iot
Ġhit ch
work ing
time s
Ġtri ple
Ġtri ll
Ġtri logy
sit te
any ways
any the
Ġblo ke
Ġdec ad
Ġdec lare
Ġmar lin
Ġmar ina
Ġmar riage
Ġmar iju
Ġmind ed
Ġav ocado
Ġsummer i
een y
Ġcar l
Ġcar rel
Ġcar bon
Ġbo ss
Ġinc ident
Ġinc oming
Ġinc apable
ha zard
Ġfree way
Ġab sent
Ġab ortion
Ġab oard
Ġinter ior
Ġinter action
Ġinter vention
Ġart work
Ġrain bow
Ġnap s
Ġfl uff
oll er
oll ably
Ġhand y
Ġhand out
Ġsupport ive
br and
br ine
Ġsad ist
for mer
sw ing
sw ear
sw eep
Ġsk ate
Ġmin im
Ġno se
Ġno ble
Ġno sey
Ġrep ress
Ġrest less
Ġstr anger
Ġsur round
Ġep ider
Ġclass y
Ġclass room
Ġhigh way
Ġhigh land
Ġreg ion
Ġreg ister
Ġalb ino
Ġalb ata
oc ate
Ġsl am
Ġsl ang
Ġsl ept
Ġsl ugg
Ġdra matic
Ġind ul
Ġind uce
Ġind epend
Ġind oor
Ġind aba
Ġind igenous
Ġtrain er
Ġstress ful
Ġsuper b
Ġsuper power
Ġsuper natural
Ġhair spray
Ġexperience d
Ġset up
Ġover night
Ġover look
Ġrock er
Ġrock et
Ġwonder fully
vers al
Ġoff line
ph y
ph in
ph ysic
Ġsince re
Ġter rif
Ġdepress ant
Ġpass word
Ġexp at
Ġexp and
Ġexp ensive
Ġcook er
Ġcook out
Ġfly past
Ġplan e
air port
Ġpu ke
Ġam en
Ġword less
Ġdam age
Ġmem orial
gu in
gu itar
Ġdi gest
Ġcre d
Ġcre w
Ġcre me
Ġpat ty
Ġpat ron
Ġheart beat
Ġheart bre
ike man
mm ing
Ġdon key
odu ct
Ġunder wear
play let
Ġsym bol
Ġsym pathy
Ġcry stal
Ġbar on
Ġbar ber
Ġbar rel
Ġbar gain
Ġhum ble
Ġhum ane
Ġhum iliate
Ġfinish ed
ib ate
ib rium
pre sent
pre pare
Ġbat he
Ġbat tery
Ġstory telle
Ġprom otion
do se
Ġet hic
Ġsa ving
Ġsa fet
Ġsa vage
Ġsa usage
Ġsn ake
Ġsn ore
Ġsn eak
Ġsn eeze
Ġob i
Ġdisc red
Ġdisc laim
Ġdisc ourage
Ġdisc rimin
cle ar
cle ver
wh at
wh ole
Ġdog ie
Ġdown stairs
Ġcri me
Ġcri sp
Ġcri min
Ġcur ry
Ġcur ric
Ġpast a
Ġtherap eut
Ġleg end
Ġpea ch
ffic ient
Ġprodu cer
exc ept
pr otect
pr oduct
uu uugh
ret urn
Ġcongrat s
Ġgra ve
Ġgra phic
Ġgra ffiti
Ġpri m
Ġpri est
Ġpri vile
Ġnum b
Ġcheer io
Ġcheer lead
Ġteach ing
Ġintern ship
Ġintern ational
Ġunderstand ing
Ġfil ar
Ġhom ic
Ġhom eless
Ġhom eland
Ġhom epage
Ġhang ing
Ġinf erno
Ġgrad ually
bo ss
bo son
Ġpar a
Ġpar aly
Ġpar adise
Ġbet a
Ġsub side
Ġsub stitute
Ġshort y
Ġinst ant
Ġinst all
Ġru sh
Ġrob in
Ġrob alo
Ġrob otic
Ġblack ish
Ġblack berry
Ġcann on
min or
min ist
some body
Ġz ap
Ġz omb
rel la
rel ieve
rel ationship
Ġlunch time
Ġgen e
Ġgen erally
Ġgen eral
Ġair born
Ġjust ified
Ġcompl icated
Ġcolor ful
Ġcolor ado
com p
com ment
com pl
com mon
rit os
Ġsal vation
Ġdiagno stic
Ġwater fall
Ġbra g
Ġbra ss
Ġbra ve
Ġoffer ing
Ġblue berry
bl er
bl ank
dr ome
dr op
Ġsil ently
Ġcourse work
Ġcele b
Ġpol o
Ġmad ness
Ġben jamin
Ġag ain
Ġshoot er
Ġshoot ing
Ġgrand pa
ose xual
Ġsort ie
Ġcap acity
Ġcatch y
Ġstick er
Ġconf ide
Ġconf ident
Ġconf idence
Ġcons ist
Ġcons ult
Ġcons istent
Ġloc o
Ġloc ate
Ġcal if
Ġcard ie
Ġlady bird
Ġbag el
Ġfore st
Ġac oustic
Ġdef ine
Ġdef ense
umb a
Ġspr out
Ġspr inkle
Ġprop ortion
Ġprop aganda
Ġhalf way
Ġsy rup
Ġson ic
Ġpen is
Ġpen guin
Ġpop ulation
Ġpop corn
Ġpract ically
Ġhol istic
Ġevent ually
Ġaut ism
Ġret ro
Ġret ire
Ġret ina
add iction
Ġdead ly
Ġins ist
Ġcond emn
ify ing
cra p
sun shine
sun burn
ught y
Ġent ry
Ġent itle
Ġsol id
Ġsol ano
Ġcou gar
Ġgarden ing
Ġfr ay
Ġfr ance
Ġfat igue
Ġref uge
Ġnote book
Ġstupid ly
Ġang st
Ġchee sy
Ġeng ine
Ġproject ion
ho ly
ho oray
Ġom elette
Ġtem per
Ġwood y
Ġmis ery
Ġmis understood
Ġmis conception
Ġnon sense
Ġnon fiction
Ġdraw er
Ġpush up
lin ing
ning s
tr ump
Ġis olate
Ġdig ital
Ġcr an
Ġcr op
Ġcr ank
Ġcr icket
Ġcer ia
Ġcer tify
Ġcold ly
Ġmet al
Ġmet ro
Ġmain ly
Ġmain land
Ġmass age
Ġfill ipe
Ġfla re
ident ally
Ġant icip
Ġant idepressant
Ġdesp air
Ġprogra mming
Ġimport ance
cut ion
where as
Ġer rand
Ġcoun ter
Ġcoun ty
Ġmap le
Ġbul b
Ġbul k
Ġbul let
Ġnat al
Ġnat ural
Ġalcohol ism
Ġrad ius
Ġbegin ning
Ġener getic
Ġsuppose dly
Ġclin ic
Ġdrag on
dra gon
uc ination
Ġpal m
Ġbre w
Ġbre ed
Ġboo st
Ġbur ger
Ġbur ritos
Ġball ad
Ġvol ume
Ġcost ume
ogra pher
Ġcollect or
Ġmarket ing
Ġpsycholog ical
Ġcommun ication
wr ong
Ġta u
Ġden ial
Ġcreat ivity
Ġgl itter
Ġgl imp
Ġful fill
Ġhat red
Ġking dom
Ġspam mer
Ġreduce s
Ġfresh man
Ġagree ment
Ġmotiv ated
Ġentire ly
mar gin
mar riage
sm art
sm all
Ġver se
rem ove
Ġsqu irrel
Ġple as
Ġbi ological
Ġna ive
Ġna vy
Ġna ughty
Ġner d
Ġhon ored
Ġhop ing
enter tain
Ġest ablish
Ġesc al
Ġexist ence
Ġmania c
Ġtooth brush
Ġupload ed
Ġmagic ian
car ry
sur f
sur prise
sur gery
sur vive
tra vel
Ġdire ctor
Ġglo om
Ġglo omy
Ġpath way
Ġmic elle
Ġnone xistent
Ġflo at
Ġchrist y
asc o
rub bish
Ġadv ance
Ġadv isor
Ġadv ocate
Ġprot ection
Ġwho ever
Ġbird ie
Ġrare ly
Ġorg asm
Ġaccom pany
super b
Ġpotent ial
Ġinspir ational
av ian
acc ept
acc identally
lant e
luck ily
tea m
wood lot
Ġsci entist
Ġtre asury
Ġdep end
Ġdep artment
Ġdick ie
Ġcro issant
Ġpill ow
Ġhy dr
Ġhack ie
Ġreject ion
Ġsuit case
Ġsuccess ful
Ġvar i
Ġvar iety
Ġvar ious
Ġfunction al
Ġslight ly
Ġtalent e
Ġtalent ed
Ġstrength en
af ternoon
cl ick
hol ly
lim it
vi ol
rec ord
Ġtend ency
Ġtim ing
Ġtim berland
Ġcu rious
Ġcir ca
Ġcir cus
Ġcru d
Ġfle x
Ġfreak ing
asm ine
Ġguil t
Ġcommit tee
person ally
ific ent
cont our
cont act
Ġorgan ize
Ġorgan ization
Ġclim ate
Ġtrick y
Ġtrans g
Ġtrans former
suic idal
Ġfrust ration
Ġcouns ellor
Ġaccomplish ment
dis cuss
hur ry
hur ray
hur rah
hand le
nor way
pol ish
pol iter
sub merge
Ġay ah
reg ular
Ġsam iel
Ġsem i
Ġtur key
Ġcoo per
Ġcab in
Ġcup cake
Ġlou der
Ġgro g
Ġgro cery
Ġward robe
Ġpit ch
Ġmam ma
Ġmast urbate
Ġbon nie
Ġble ach
Ġnut rition
Ġfra me
Ġhook ah
Ġhall ah
Ġhall ucination
stru al
Ġaunt ie
sec ret
Ġstri pper
Ġkn ee
Ġkar aoke
Ġcha os
Ġyak ka
rob ot
Ġinno vation
Ġmur phy
Ġfair y
Ġquarter ly
Ġpartic ipant
Ġorig in
Ġabs ence
Ġabs olute
Ġexplo it
Ġsimilar ity
Ġgener ational
Ġirrit ation
Ġcorre sp
Ġtechn ique
Ġ2 34
Ġide ation
Ġour self
Ġult rasound
Ġtol erable
Ġge ode
Ġgag a
Ġgag gle
Ġmater nity
Ġbri dge
Ġnur se
Ġnur sing
str angely
Ġthrill er
Ġstom p
Ġlim ited
Ġsham eless
Ġali en
Ġali quot
quil ibrium
Ġphot ographer
Ġcoll ab
Ġcoll apse
Ġopp ression
Ġappro val
Ġcarol ing
Ġworthless ness
Ġfrequ ently
Ġpsychiat ric
build ing
Ġpolit ic
Ġpolit ician
Ġmagn esium
Ġmagn ificent
Ġconfirm ation
Ġignor ant
Ġdisappoint ment
bus y
cal le
count ry
del ete
del icious
ded icate
dest roy
fr om
fel t
fam ous
fam ily
ham my
loll op
writ er
writ ten
yum my
Ġic on
Ġic ed
res ult
Ġsat in
Ġsel ection
Ġsel ective
Ġdom inate
Ġcas a
Ġlam b
Ġgee z
Ġpud ding
Ġmer cy
Ġbree zy
Ġbree ze
Ġfur ry
Ġhen ry
Ġhel ium
Ġreven ge
Ġreven ue
Ġken ya
Ġneg lect
Ġdeb unk
Ġdeb ilitate
Ġvulner able
Ġvulner ability
Ġrud eness
Ġweep y
bless ing
Ġprem iere
Ġphilipp ine
Ġphilipp ines
Ġmock ery
Ġimmedi ate
Ġimmedi ately
Ġaddition al
Ġcontract ion
Ġattract ive
Ġmarvel ous
Ġtermin al
Ġtermin ator
prince ss
Ġprior ity
Ġinfl uence
Ġgenu ine
Ġgenu inely
Ġcapital ism
Ġsmooth ly
Ġdefic it
Ġdefic iency
Ġsyn drome
Ġdistract ion
Ġbully ing
Ġbleed ing
Ġcourt esy
Ġlemon ade
Ġgentle man
cre ate
cop y
gig gle
mis erable
mus ic
mix ed
sl ip
sla ught
vis it
wind ow
yog a
zu ela
Ġsep ia
Ġsizz le
Ġtab let
Ġtang le
inst ead
Ġdy sphoria
Ġdome stic
Ġduff el
Ġdub bin
Ġcel ibate
Ġcame o
Ġgal ore
Ġgot cha
Ġgir ly
Ġwis dom
Ġwhere ver
Ġpy oid
Ġpep per
Ġpil ot
Ġped est
Ġport ugal
Ġpunk ie
alb um
Ġbou le
Ġbuff alo
Ġfi asco
Ġfant asy
Ġfort un
eng age
itzer land
Ġequ al
Ġaven ger
Ġreck on
Ġthrough out
Ġliqu or
medic ine
Ġchal ice
Ġchap ter
Ġchamp ionship
Ġsucc eed
Ġnecess ary
Ġshel ter
Ġinsec urity
Ġvir us
Ġvoc al
Ġvillain ous
umin um
Ġrh ubarb
Ġconcent rate
Ġspect rum
Ġplug in
spe ake
Ġpersu asion
Ġprescri ption
Ġpregn ant
Ġphilos oph
Ġsunburn t
Ġunfortun ate
Ġwhis perer
Ġgroo ve
Ġimper ative
Ġrecept ionist
Ġillust ration
Ġord inary
Ġmeaning ful
Ġmyst ery
Ġrelat able
Ġclar ion
Ġapplic ation
Ġoutdoor s
Ġindust ry
Ġterror ist
Ġsignific antly
grand pa
Ġobsc ure
who a
techn ically
Ġacad emy
Ġautograph ed
Ġdocument ary
Ġvolley ball
Ġjewel ry
Ġspiritual ity
Ġilleg al
Ġmultip le
Ġnarciss ism
bur ger
cu it
depress ed
hack ie
mur der
mpol ine
pea ce
pap a
pict ure
toc in
vac ation
Ġite m
Ġire land
Ġath lete
Ġumb rella
resp onse
recom mend
Ġsor a
Ġsod a
Ġsie ge
Ġsed an
Ġsab er
Ġslo gan
Ġsold ier
Ġsect or
Ġsedu ctively
Ġtack le
Ġtren dy
erior ate
Ġdod ger
Ġcit izen
Ġces ar
Ġcand le
Ġcoh ort
Ġcree k
Ġloun ge
Ġlatt e
Ġlumb ar
Ġladd ie
Ġwas p
Ġware house
Ġwhing e
Ġwelf are
Ġmant a
Ġmout on
Ġmour ning
Ġmex ico
Ġmach ine
Ġbun ny
Ġbol ivia
Ġbast ard
Ġbise xual
Ġnause a
Ġfif th
Ġhoc key
Ġaver age
Ġreme dy
Ġreass urance
Ġresem ble
christ ian
Ġstun ning
Ġstea m
Ġstruct ure
ribut ion
Ġkno ck
Ġchur r
Ġsull en
Ġshipp ing
Ġdeser t
Ġdesc end
Ġincon venience
Ġinert ia
Ġinequ ality
Ġjum per
Ġjord an
Ġjih ad
Ġviv a
Ġvenge ance
Ġviny l
Ġvene zuela
Ġoas is
Ġoxy tocin
Ġmuft i
igmat ize
Ġconven ient
Ġspark le
Ġspons or
Ġspellcheck er
import ant
Ġfundra iser
Ġfunnie st
Ġenvel ope
Ġcommer cial
Ġlifesa ver
Ġperman ent
Ġsunda es
Ġunif orm
Ġunrel ated
Ġuncontr ollably
Ġuncertain ty
Ġcoca ine
Ġarthrit is
Ġhaik u
assault e
Ġembra ce
Ġxero x
Ġorient ation
Ġoppo site
Ġopport unity
Ġappoint ment
Ġtrill ion
Ġmariju ana
Ġcarrel l
Ġepider mal
Ġslugg ish
Ġindepend ently
physic al
Ġheartbre ake
Ġbargain ing
Ġsafet y
Ġdiscred it
Ġdisclaim er
Ġdiscrimin ate
Ġcrimin al
Ġcurric ulum
Ġtherapeut ic
Ġcheerlead er
Ġzomb ie
Ġairborn e
Ġglimp se
Ġfulfill ment
