{"<s>":0,"<pad>":1,"</s>":2,"<unk>":3,"<mask>":4,"!":5,"\"":6,"#":7,"$":8,"%":9,"&":10,"'":11,"(":12,")":13,"*":14,"+":15,",":16,"-":17,".":18,"/":19,"0":20,"1":21,"2":22,"3":23,"4":24,"5":25,"6":26,"7":27,"8":28,"9":29,":":30,";":31,"<":32,"=":33,">":34,"?":35,"@":36,"A":37,"B":38,"C":39,"D":40,"E":41,"F":42,"G":43,"H":44,"I":45,"J":46,"K":47,"L":48,"M":49,"N":50,"O":51,"P":52,"Q":53,"R":54,"S":55,"T":56,"U":57,"V":58,"W":59,"X":60,"Y":61,"Z":62,"[":63,"\\":64,"]":65,"^":66,"_":67,"`":68,"a":69,"b":70,"c":71,"d":72,"e":73,"f":74,"g":75,"h":76,"i":77,"j":78,"k":79,"l":80,"m":81,"n":82,"o":83,"p":84,"q":85,"r":86,"s":87,"t":88,"u":89,"v":90,"w":91,"x":92,"y":93,"z":94,"{":95,"|":96,"}":97,"~":98,"¡":99,"¢":100,"£":101,"¤":102,"¥":103,"¦":104,"§":105,"¨":106,"©":107,"ª":108,"«":109,"¬":110,"®":111,"¯":112,"°":113,"±":114,"²":115,"³":116,"´":117,"µ":118,"¶":119,"·":120,"¸":121,"¹":122,"º":123,"»":124,"¼":125,"½":126,"¾":127,"¿":128,"À":129,"Á":130,"Â":131,"Ã":132,"Ä":133,"Å":134,"Æ":135,"Ç":136,"È":137,"É":138,"Ê":139,"Ë":140,"Ì":141,"Í":142,"Î":143,"Ï":144,"Ð":145,"Ñ":146,"Ò":147,"Ó":148,"Ô":149,"Õ":150,"Ö":151,"×":152,"Ø":153,"Ù":154,"Ú":155,"Û":156,"Ü":157,"Ý":158,"Þ":159,"ß":160,"à":161,"á":162,"â":163,"ã":164,"ä":165,"å":166,"æ":167,"ç":168,"è":169,"é":170,"ê":171,"ë":172,"ì":173,"í":174,"î":175,"ï":176,"ð":177,"ñ":178,"ò":179,"ó":180,"ô":181,"õ":182,"ö":183,"÷":184,"ø":185,"ù":186,"ú":187,"û":188,"ü":189,"ý":190,"þ":191,"ÿ":192,"Ā":193,"ā":194,"Ă":195,"ă":196,"Ą":197,"ą":198,"Ć":199,"ć":200,"Ĉ":201,"ĉ":202,"Ċ":203,"ċ":204,"Č":205,"č":206,"Ď":207,"ď":208,"Đ":209,"đ":210,"Ē":211,"ē":212,"Ĕ":213,"ĕ":214,"Ė":215,"ė":216,"Ę":217,"ę":218,"Ě":219,"ě":220,"Ĝ":221,"ĝ":222,"Ğ":223,"ğ":224,"Ġ":225,"ġ":226,"Ģ":227,"ģ":228,"Ĥ":229,"ĥ":230,"Ħ":231,"ħ":232,"Ĩ":233,"ĩ":234,"Ī":235,"ī":236,"Ĭ":237,"ĭ":238,"Į":239,"į":240,"İ":241,"ı":242,"Ĳ":243,"ĳ":244,"Ĵ":245,"ĵ":246,"Ķ":247,"ķ":248,"ĸ":249,"Ĺ":250,"ĺ":251,"Ļ":252,"ļ":253,"Ľ":254,"ľ":255,"Ŀ":256,"ŀ":257,"Ł":258,"ł":259,"Ń":260,"re":261,"Ġs":262,"on":263,"Ġt":264,"in":265,"er":266,"Ġd":267,"Ġc":268,"Ġl":269,"an":270,"Ġg":271,"Ġw":272,"Ġp":273,"Ġm":274,"ss":275,"al":276,"Ġb":277,"ion":278,"Ġn":279,"Ġf":280,"Ġh":281,"at":282,"ay":283,"en":284,"ep":285,"ot":286,"et":287,"it":288,"or":289,"ar":290,"ress":291,"om":292,"el":293,"epress":294,"epression":295,"st":296,"ou":297,"le":298,"oo":299,"ic":300,"ing":301,"Ġdepression":302,"ke":303,"Ġe":304,"Ġa":305,"ve":306,"ow":307,"ly":308,"se":309,"gh":310,"Ġre":311,"ch":312,"Ġnot":313,"Ġth":314,"ad":315,"ome":316,"ee":317,"Ġst":318,"ri":319,"op":320,"Ġli":321,"ck":322,"ood":323,"one":324,"th":325,"ght":326,"il":327,"un":328,"Ġgo":329,"me":330,"ver":331,"ake":332,"ol":333,"ter":334,"ent":335,"ell":336,"Ġget":337,"id":338,"ra":339,"ove":340,"Ġk":341,"Ġtw":342,"Ġan":343,"is":344,"ea":345,"ce":346,"ir":347,"ct":348,"ight":349,"ally":350,"ap":351,"Ġch":352,"od":353,"end":354,"Ġday":355,"Ġsu":356,"ank":357,"Ġgood":358,"Ġy":359,"ate":360,"ge":361,"Ġne":362,"Ġsh":363,"ld":364,"Ġwor":365,"ro":366,"ry":367,"ime":368,"Ġde":369,"Ġin":370,"Ġcome":371,"ut":372,"ie":373,"itter":374,"now":375,"ink":376,"Ġlike":377,"ul":378,"Ġlove":379,"ed":380,"ant":381,"Ġal":382,"Ġtwitter":383,"am":384,"fe":385,"ack":386,"ill":387,"ear":388,"Ġj":389,"Ġv":390,"ook":391,"ould":392,"Ġtime":393,"reat":394,"Ġsee":395,"Ġlot":396,"um":397,"ast":398,"ive":399,"Ġo":400,"ess":401,"her":402,"ong":403,"Ġex":404,"Ġpic":405,"Ġknow":406,"Ġmu":407,"ite":408,"Ġmake":409,"Ġwell":410,"ff":411,"ur":412,"Ġever":413,"ind":414,"art":415,"app":416,"oday":417,"ice":418,"iet":419,"Ġone":420,"es":421,"and":422,"atch":423,"Ġr":424,"Ġtoday":425,"Ġbe":426,"Ġfe":427,"ab":428,"ation":429,"iety":430,"Ġwe":431,"oun":432,"way":433,"ah":434,"get":435,"ine":436,"xiety":437,"Ġwork":438,"as":439,"ig":440,"ide":441,"eet":442,"ard":443,"ure":444,"Ġri":445,"depression":446,"la":447,"ase":448,"go":449,"Ġthank":450,"Ġnew":451,"Ġhe":452,"Ġfeel":453,"Ġanxiety":454,"all":455,"Ġcon":456,"Ġevery":457,"ru":458,"eed":459,"Ġu":460,"thank":461,"Ġthink":462,"he":463,"eop":464,"low":465,"Ġsp":466,"Ġsay":467,"eople":468,"im":469,"ope":470,"ish":471,"Ġman":472,"ool":473,"ist":474,"oy":475,"sh":476,"Ġback":477,"Ġnight":478,"Ġgreat":479,"Ġwant":480,"are":481,"Ġso":482,"Ġfri":483,"eek":484,"appy":485,"Ġpeople":486,"ci":487,"Ġad":488,"Ġpo":489,"good":490,"Ġwould":491,"orn":492,"ud":493,"other":494,"qu":495,"row":496,"pp":497,"Ġfun":498,"Ġdo":499,"Ġen":500,"ous":501,"Ġweek":502,"out":503,"ough":504,"Ġmuch":505,"our":506,"uck":507,"der":508,"Ġgu":509,"Ġreally":510,"ort":511,"elp":512,"ful":513,"ia":514,"Ġpr":515,"ity":516,"Ġtake":517,"hing":518,"ick":519,"Ġpl":520,"Ġjo":521,"Ġpro":522,"ma":523,"ment":524,"ely":525,"ait":526,"Ġcom":527,"ollow":528,"ble":529,"day":530,"Ġlife":531,"Ġfriend":532,"Ġlook":533,"lo":534,"ven":535,"Ġhope":536,"Ġhelp":537,"alk":538,"iss":539,"ady":540,"orning":541,"ound":542,"be":543,"Ġthing":544,"Ġway":545,"Ġaw":546,"Ġmay":547,"Ġneed":548,"orrow":549,"sp":550,"us":551,"Ġtry":552,"Ġper":553,"age":554,"leep":555,"ip":556,"Ġfollow":557,"Ġany":558,"Ġto":559,"Ġpre":560,"ex":561,"Ġro":562,"ain":563,"Ġlo":564,"Ġwatch":565,"old":566,"oh":567,"Ġright":568,"ame":569,"tle":570,"Ġtom":571,"rain":572,"ue":573,"Ġmorning":574,"Ġhome":575,"est":576,"Ġshow":577,"per":578,"Ġfa":579,"love":580,"Ġhappy":581,"Ġwait":582,"Ġbad":583,"esome":584,"Ġtomorrow":585,"Ġph":586,"Ġmo":587,"Ġeven":588,"Ġsun":589,"Ġgive":590,"come":591,"em":592,"ness":593,"Ġun":594,"Ġhah":595,"omet":596,"ect":597,"Ġqu":598,"Ġwh":599,"Ġfor":600,"Ġact":601,"ire":602,"ag":603,"lease":604,"Ġco":605,"Ġtweet":606,"Ġuse":607,"hey":608,"lot":609,"Ġlea":610,"vie":611,"iz":612,"ree":613,"Ġsleep":614,"Ġeveryone":615,"irst":616,"ak":617,"ber":618,"mer":619,"Ġlet":620,"ty":621,"Ġcut":622,"ren":623,"Ġlast":624,"son":625,"Ġsw":626,"Ġsomet":627,"Ġstill":628,"Ġyear":629,"Ġnever":630,"Ġbl":631,"Ġcould":632,"Ġdis":633,"Ġla":634,"Ġnice":635,"Ġsoon":636,"mo":637,"eah":638,"Ġguy":639,"pl":640,"Ġment":641,"Ġche":642,"so":643,"Ġsome":644,"Ġfin":645,"sic":646,"Ġle":647,"Ġthough":648,"thing":649,"ile":650,"joy":651,"watch":652,"Ġar":653,"Ġfind":654,"Ġhear":655,"ust":656,"ance":657,"Ġbr":658,"Ġha":659,"ways":660,"fin":661,"irl":662,"Ġawesome":663,"ever":664,"ix":665,"uff":666,"Ġsch":667,"Ġtalk":668,"Ġplay":669,"li":670,"Ġmom":671,"ny":672,"sk":673,"Ġpart":674,"Ġbed":675,"Ġfirst":676,"ild":677,"if":678,"ily":679,"use":680,"xx":681,"ater":682,"Ġreal":683,"Ġof":684,"man":685,"Ġlit":686,"Ġgr":687,"Ġim":688,"Ġton":689,"Ġwr":690,"Ġheal":691,"know":692,"vel":693,"Ġstart":694,"Ġint":695,"zing":696,"Ġke":697,"Ġplease":698,"ence":699,"ark":700,"Ġeat":701,"gg":702,"up":703,"Ġsong":704,"Ġbu":705,"ath":706,"ory":707,"Ġpost":708,"ually":709,"reak":710,"Ġcool":711,"Ġme":712,"Ġbir":713,"Ġworld":714,"Ġadd":715,"Ġsomething":716,"Ġmental":717,"Ġthe":718,"Ġexc":719,"act":720,"Ġse":721,"ange":722,"cc":723,"iv":724,"Ġtell":725,"att":726,"Ġlist":727,"Ġweekend":728,"Ġjob":729,"Ġra":730,"Ġlong":731,"Ġmiss":732,"think":733,"thday":734,"Ġsomeone":735,"Ġlive":736,"happy":737,"Ġgirl":738,"ffer":739,"Ġschool":740,"Ġtonight":741,"ass":742,"Ġbit":743,"Ġbea":744,"Ġmovie":745,"de":746,"ise":747,"lad":748,"Ġalways":749,"ign":750,"ious":751,"ore":752,"wor":753,"arly":754,"Ġsure":755,"Ġenjoy":756,"dy":757,"xt":758,"int":759,"ang":760,"Ġhot":761,"Ġnext":762,"con":763,"og":764,"Ġama":765,"oney":766,"Ġkid":767,"Ġup":768,"Ġkeep":769,"Ġbirthday":770,"Ġem":771,"lass":772,"Ġmaybe":773,"hah":774,"ual":775,"Ġcall":776,"Ġit":777,"ready":778,"urn":779,"aw":780,"oot":781,"ub":782,"Ġx":783,"Ġsm":784,"own":785,"Ġrec":786,"Ġread":787,"Ġmusic":788,"Ġcont":789,"Ġhealth":790,"igh":791,"Ġser":792,"Ġmon":793,"ouse":794,"Ġcheck":795,"Ġold":796,"Ġcol":797,"Ġwin":798,"Ġlittle":799,"ac":800,"pe":801,"well":802,"Ġill":803,"Ġsc":804,"less":805,"Ġya":806,"Ġamazing":807,"Ġor":808,"Ġbig":809,"Ġfuck":810,"Ġhour":811,"Ġready":812,"ount":813,"ne":814,"no":815,"tty":816,"Ġop":817,"Ġtra":818,"ult":819,"Ġvia":820,"able":821,"Ġcomp":822,"ave":823,"ner":824,"Ġdr":825,"Ġass":826,"Ġstud":827,"Ġsupp":828,"Ġlisten":829,"Ġluck":830,"Ġperson":831,"Ġmean":832,"ole":833,"Ġel":834,"Ġend":835,"Ġatt":836,"Ġcan":837,"Ġwit":838,"Ġmoney":839,"Ġfam":840,"Ġhard":841,"ict":842,"fect":843,"ream":844,"Ġtru":845,"Ġcare":846,"Ġmy":847,"Ġmed":848,"Ġbreak":849,"Ġsum":850,"Ġalso":851,"Ġleave":852,"ize":853,"great":854,"iful":855,"say":856,"Ġtea":857,"Ġwish":858,"Ġhapp":859,"utiful":860,"Ġoh":861,"Ġhead":862,"ail":863,"my":864,"night":865,"yes":866,"Ġcra":867,"Ġboy":868,"like":869,"pt":870,"Ġwar":871,"Ġrel":872,"rive":873,"Ġgod":874,"ince":875,"Ġcl":876,"Ġcure":877,"Ġhouse":878,"ather":879,"hi":880,"ser":881,"ug":882,"Ġbab":883,"orry":884,"ical":885,"Ġapp":886,"Ġstop":887,"cial":888,"ere":889,"Ġtr":890,"elf":891,"Ġacc":892,"Ġnothing":893,"cer":894,"let":895,"look":896,"rat":897,"sc":898,"yeah":899,"Ġid":900,"Ġmeet":901,"Ġhit":902,"ord":903,"Ġmany":904,"Ġactually":905,"Ġimp":906,"work":907,"ward":908,"Ġon":909,"Ġgame":910,"Ġaway":911,"ody":912,"lace":913,"ude":914,"make":915,"time":916,"onder":917,"Ġtri":918,"otion":919,"une":920,"Ġrun":921,"Ġwrite":922,"dge":923,"sit":924,"ym":925,"Ġout":926,"Ġsit":927,"any":928,"Ġblo":929,"Ġsuffer":930,"Ġdec":931,"Ġalready":932,"ideo":933,"Ġfamily":934,"mber":935,"Ġmar":936,"Ġmind":937,"Ġbook":938,"ote":939,"Ġav":940,"Ġanother":941,"Ġsuic":942,"Ġshit":943,"Ġsummer":944,"side":945,"ary":946,"ought":947,"unch":948,"Ġchild":949,"Ġyes":950,"ull":951,"Ġaround":952,"een":953,"kay":954,"zy":955,"Ġsing":956,"Ġcar":957,"Ġbo":958,"Ġbus":959,"Ġearly":960,"member":961,"Ġinc":962,"ute":963,"Ġphone":964,"Ġbaby":965,"ha":966,"po":967,"inner":968,"Ġpain":969,"Ġmight":970,"Ġfree":971,"Ġab":972,"Ġstay":973,"Ġkind":974,"Ġinter":975,"Ġsweet":976,"ggle":977,"tw":978,"Ġart":979,"Ġrain":980,"Ġnap":981,"Ġfl":982,"Ġhell":983,"Ġstuff":984,"oll":985,"Ġchange":986,"Ġyeah":987,"Ġexper":988,"Ġpretty":989,"velop":990,"Ġbeautiful":991,"Ġwith":992,"Ġhappen":993,"iness":994,"Ġglad":995,"Ġhand":996,"Ġtwo":997,"ongrat":998,"cise":999,"Ġleast":1000,"Ġbuy":1001,"Ġsupport":1002,"\"\"":1003,"br":1004,"ience":1005,"of":1006,"ugh":1007,"Ġsad":1008,"ercise":1009,"Ġlater":1010,"Ġplace":1011,"ala":1012,"Ġfight":1013,"lect":1014,"Ġaf":1015,"see":1016,"Ġdevelop":1017,"for":1018,"sw":1019,"Ġsk":1020,"Ġcle":1021,"Ġmother":1022,"Ġname":1023,"elcome":1024,"Ġred":1025,"right":1026,"feren":1027,"ason":1028,"xxxx":1029,"Ġstudy":1030,"back":1031,"hope":1032,"line":1033,"mom":1034,"vor":1035,"Ġmin":1036,"Ġno":1037,"Ġrep":1038,"Ġrest":1039,"Ġstr":1040,"Ġsur":1041,"Ġvideo":1042,"blem":1043,"Ġfollower":1044,"Ġlose":1045,"erest":1046,"da":1047,"Ġep":1048,"Ġself":1049,"Ġdinner":1050,"Ġclass":1051,"Ġpay":1052,"Ġput":1053,"Ġbel":1054,"Ġhigh":1055,"ept":1056,"ited":1057,"Ġask":1058,"Ġreg":1059,"eak":1060,"ruggle":1061,"Ġanything":1062,"Ġcute":1063,"Ġemotion":1064,"Ġmonth":1065,"want":1066,"ye":1067,"read":1068,"Ġfood":1069,"Ġhal":1070,"Ġhate":1071,"order":1072,"Ġyet":1073,"ieve":1074,"Ġalb":1075,"Ġfinally":1076,"Ġbring":1077,"ach":1078,"ian":1079,"oc":1080,"ron":1081,"sy":1082,"really":1083,"Ġsl":1084,"Ġsound":1085,"Ġtreat":1086,"Ġturn":1087,"Ġtune":1088,"Ġdra":1089,"Ġfar":1090,"Ġeas":1091,"Ġdeal":1092,"Ġind":1093,"issue":1094,"most":1095,"Ġillness":1096,"Ġelse":1097,"Ġidea":1098,"ause":1099,"date":1100,"ft":1101,"ĠI":1102,"Ġsend":1103,"Ġtrain":1104,"oud":1105,"Ġthought":1106,"Ġstress":1107,"Ġsuper":1108,"ext":1109,"ester":1110,"Ġhair":1111,"Ġfucking":1112,"Ġexperience":1113,"ple":1114,"su":1115,"Ġissue":1116,"Ġset":1117,"otally":1118,"Ġover":1119,"Ġfridge":1120,"Ġfunny":1121,"Ġrock":1122,"Ġparty":1123,"body":1124,"ture":1125,"vent":1126,"Ġcase":1127,"Ġlow":1128,"Ġlear":1129,"Ġwonder":1130,"Ġmess":1131,"Ġho":1132,"Ġstruggle":1133,"Ġgoing":1134,"vers":1135,"ode":1136,"Ġshop":1137,"Ġshare":1138,"Ġoff":1139,"ired":1140,"Ġblog":1141,"Ġlearn":1142,"book":1143,"list":1144,"ph":1145,"vely":1146,"would":1147,"Ġsince":1148,"Ġsorry":1149,"Ġter":1150,"Ġtop":1151,"Ġdepress":1152,"Ġdrive":1153,"Ġpass":1154,"ition":1155,"arch":1156,"ade":1157,"Ġchar":1158,"feel":1159,"Ġexp":1160,"Ġpicture":1161,"ably":1162,"Ġdisorder":1163,"Ġinterest":1164,"Ġalbum":1165,"esterday":1166,"ial":1167,"Ġcook":1168,"Ġfan":1169,"Ġfly":1170,"cess":1171,"Ġenough":1172,"Ġplan":1173,"Ġjoin":1174,"Ġproblem":1175,"Ġanyway":1176,"every":1177,"ifferen":1178,"Ġdrink":1179,"Ġeasy":1180,"ace":1181,"air":1182,"need":1183,"Ġsign":1184,"Ġtill":1185,"Ġpu":1186,"stand":1187,"Ġam":1188,"search":1189,"Ġreason":1190,"che":1191,"Ġword":1192,"Ġworth":1193,"ama":1194,"ump":1195,"ffee":1196,"Ġrisk":1197,"ciate":1198,"fully":1199,"Ġroom":1200,"Ġforward":1201,"serve":1202,"Ġwithout":1203,"vorite":1204,"dae":1205,"ject":1206,"mit":1207,"Ġdam":1208,"Ġcause":1209,"Ġwake":1210,"Ġmem":1211,"ale":1212,"Ġbrain":1213,"Ġhar":1214,"urt":1215,"urdy":1216,"Ġweather":1217,"mail":1218,"Ġwhole":1219,"Ġcoffee":1220,"new":1221,"listen":1222,"fri":1223,"gu":1224,"last":1225,"mon":1226,"nice":1227,"take":1228,"wait":1229,"Ġsex":1230,"Ġdi":1231,"Ġdream":1232,"Ġcre":1233,"Ġless":1234,"Ġpat":1235,"Ġmove":1236,"itely":1237,"Ġvis":1238,"Ġseem":1239,"ister":1240,"Ġanyone":1241,"Ġlaugh":1242,"Ġheart":1243,"finitely":1244,"Ġopen":1245,"Ġsuicide":1246,"bably":1247,"ike":1248,"ible":1249,"mm":1250,"sleep":1251,"wow":1252,"Ġtie":1253,"erap":1254,"Ġdon":1255,"Ġdifferen":1256,"Ġlate":1257,"Ġfix":1258,"ayer":1259,"ica":1260,"Ġrem":1261,"Ġremember":1262,"odu":1263,"Ġweb":1264,"gether":1265,"ash":1266,"Ġconcer":1267,"Ġeverything":1268,"ship":1269,"Ġguess":1270,"Ġsundae":1271,"Ġunder":1272,"play":1273,"Ġserious":1274,"glad":1275,"try":1276,"Ġsym":1277,"Ġteen":1278,"Ġcry":1279,"Ġbar":1280,"Ġnite":1281,"Ġfall":1282,"Ġhum":1283,"Ġworry":1284,"Ġlovely":1285,"Ġquite":1286,"view":1287,"Ġfinish":1288,"Ġlead":1289,"ptom":1290,"Ġtrip":1291,"gr":1292,"ib":1293,"ium":1294,"ling":1295,"pre":1296,"Ġother":1297,"Ġbat":1298,"Ġnor":1299,"oto":1300,"Ġago":1301,"Ġstory":1302,"Ġsturdy":1303,"Ġand":1304,"Ġann":1305,"Ġyum":1306,"Ġyesterday":1307,"head":1308,"Ġspend":1309,"ourse":1310,"Ġprom":1311,"Ġforget":1312,"finally":1313,"Ġaddict":1314,"Ġsmile":1315,"Ġoutside":1316,"do":1317,"ger":1318,"oid":1319,"tain":1320,"vice":1321,"Ġet":1322,"Ġsa":1323,"Ġsn":1324,"Ġsea":1325,"Ġsite":1326,"Ġmood":1327,"Ġfoot":1328,"outh":1329,"ically":1330,"Ġemail":1331,"Ġamer":1332,"olar":1333,"Ġsuck":1334,"Ġob":1335,"Ġtogether":1336,"Ġfavorite":1337,"Ġdisc":1338,"Ġbitch":1339,"cond":1340,"Ġdevelopment":1341,"Ġemotional":1342,"cle":1343,"fun":1344,"ife":1345,"land":1346,"wh":1347,"ze":1348,"reen":1349,"Ġside":1350,"Ġlink":1351,"Ġhug":1352,"ense":1353,"oop":1354,"ract":1355,"Ġdeep":1356,"Ġalmost":1357,"Ġexercise":1358,"Ġpick":1359,"lax":1360,"rug":1361,"here":1362,"cially":1363,"Ġdog":1364,"lose":1365,"Ġwrong":1366,"Ġsecond":1367,"friend":1368,"Ġamerica":1369,"eep":1370,"hell":1371,"over":1372,"reciate":1373,"Ġdown":1374,"Ġcri":1375,"Ġcop":1376,"Ġcur":1377,"Ġpot":1378,"Ġpast":1379,"atter":1380,"ative":1381,"ouch":1382,"ower":1383,"Ġtherap":1384,"Ġlie":1385,"Ġdeserve":1386,"Ġexam":1387,"Ġposs":1388,"Ġjoke":1389,"Ġface":1390,"Ġleg":1391,"Ġexcite":1392,"Ġconcert":1393,"cy":1394,"ding":1395,"hear":1396,"ient":1397,"morning":1398,"nt":1399,"oice":1400,"ten":1401,"ury":1402,"Ġwalk":1403,"Ġpea":1404,"Ġmine":1405,"Ġmile":1406,"Ġhu":1407,"Ġhurt":1408,"oman":1409,"ele":1410,"ellect":1411,"ouble":1412,"oose":1413,"Ġesp":1414,"Ġstate":1415,"olog":1416,"iece":1417,"amp":1418,"Ġokay":1419,"ffic":1420,"Ġhey":1421,"Ġspeak":1422,"Ġspace":1423,"Ġsocial":1424,"Ġprodu":1425,"exc":1426,"Ġfact":1427,"Ġintellect":1428,"awesome":1429,"Ġvisit":1430,"Ġsymptom":1431,"pr":1432,"pro":1433,"to":1434,"uu":1435,"uation":1436,"welcome":1437,"ype":1438,"ret":1439,"Ġtext":1440,"Ġtotally":1441,"Ġtired":1442,"Ġdark":1443,"Ġcongrat":1444,"Ġgra":1445,"Ġpage":1446,"Ġmod":1447,"ete":1448,"oup":1449,"unk":1450,"Ġposit":1451,"estion":1452,"Ġbrother":1453,"finish":1454,"Ġexcited":1455,"noon":1456,"Ġtrue":1457,"Ġappreciate":1458,"Ġintellectual":1459,"eat":1460,"hal":1461,"may":1462,"not":1463,"part":1464,"sent":1465,"sure":1466,"Ġda":1467,"Ġdad":1468,"Ġpri":1469,"Ġmark":1470,"Ġnum":1471,"Ġhun":1472,"ately":1473,"vere":1474,"Ġrelax":1475,"ril":1476,"ility":1477,"irt":1478,"Ġsug":1479,"Ġmust":1480,"Ġbeat":1481,"Ġfeeling":1482,"Ġprobably":1483,"Ġperfect":1484,"Ġshower":1485,"Ġcheer":1486,"Ġupdate":1487,"Ġteach":1488,"Ġintern":1489,"sych":1490,"check":1491,"Ġdamn":1492,"Ġunderstand":1493,"cool":1494,"fit":1495,"gno":1496,"io":1497,"okay":1498,"ton":1499,"Ġsick":1500,"Ġtoo":1501,"Ġtest":1502,"Ġdel":1503,"Ġdie":1504,"Ġdrug":1505,"ann":1506,"Ġwed":1507,"Ġwoman":1508,"Ġpan":1509,"Ġpod":1510,"Ġfre":1511,"Ġfil":1512,"Ġfine":1513,"Ġhom":1514,"Ġhang":1515,"Ġear":1516,"Ġresearch":1517,"onest":1518,"ird":1519,"Ġdefinitely":1520,"Ġinf":1521,"illion":1522,"urch":1523,"Ġbecome":1524,"arent":1525,"Ġpoint":1526,"iagno":1527,"load":1528,"Ġphoto":1529,"Ġquestion":1530,"Ġgrad":1531,"ivity":1532,"Ġbeach":1533,"Ġcolle":1534,"Ġattack":1535,"Ġmedic":1536,"Ġcrazy":1537,"Ġafter":1538,"Ġclean":1539,"Ġminute":1540,"bo":1541,"ecially":1542,"fast":1543,"follow":1544,"home":1545,"ping":1546,"port":1547,"sign":1548,"talk":1549,"wish":1550,"red":1551,"Ġtype":1552,"Ġcat":1553,"ane":1554,"Ġglass":1555,"Ġpar":1556,"Ġpsych":1557,"Ġbet":1558,"Ġbut":1559,"Ġfull":1560,"ooh":1561,"Ġeye":1562,"Ġage":1563,"Ġres":1564,"the":1565,"olut":1566,"Ġkill":1567,"Ġsub":1568,"gest":1569,"Ġshort":1570,"imes":1571,"Ġinst":1572,"Ġru":1573,"oung":1574,"igure":1575,"Ġhopefully":1576,"spect":1577,"Ġrob":1578,"Ġwhite":1579,"Ġblack":1580,"Ġcann":1581,"Ġbusy":1582,"post":1583,"Ġreply":1584,"Ġhalala":1585,"ronic":1586,"Ġinteresting":1587,"Ġdifferent":1588,"Ġbattle":1589,"Ġseason":1590,"hello":1591,"Ġwedding":1592,"away":1593,"bt":1594,"bu":1595,"ball":1596,"congrat":1597,"ffect":1598,"gin":1599,"gan":1600,"lude":1601,"min":1602,"oke":1603,"set":1604,"some":1605,"sound":1606,"tru":1607,"uch":1608,"yle":1609,"ysic":1610,"Ġz":1611,"rel":1612,"Ġsim":1613,"Ġsave":1614,"Ġlunch":1615,"Ġgen":1616,"Ġmix":1617,"Ġmatter":1618,"ssion":1619,"Ġband":1620,"Ġbase":1621,"Ġhi":1622,"Ġhor":1623,"ither":1624,"Ġease":1625,"Ġair":1626,"eeee":1627,"rise":1628,"idal":1629,"Ġkick":1630,"Ġchronic":1631,"ulation":1632,"Ġjust":1633,"andy":1634,"Ġride":1635,"Ġnews":1636,"Ġspe":1637,"Ġproud":1638,"icket":1639,"Ġcompl":1640,"Ġhave":1641,"Ġmoment":1642,"actly":1643,"Ġrecord":1644,"Ġcolor":1645,"Ġdecide":1646,"swer":1647,"xxxxxxxx":1648,"Ġbelieve":1649,"Ġmessage":1650,"Ġpeace":1651,"Ġespecially":1652,"Ġproduct":1653,"Ġpositive":1654,"Ġnumber":1655,"by":1656,"com":1657,"could":1658,"eal":1659,"fer":1660,"gy":1661,"gra":1662,"people":1663,"rit":1664,"site":1665,"sorry":1666,"today":1667,"we":1668,"Ġsal":1669,"Ġsix":1670,"Ġsister":1671,"ond":1672,"Ġtouch":1673,"erally":1674,"Ġdiagno":1675,"Ġcount":1676,"Ġclose":1677,"Ġlon":1678,"Ġwater":1679,"Ġma":1680,"Ġbra":1681,"Ġbless":1682,"Ġfit":1683,"enjoy":1684,"itar":1685,"Ġeffect":1686,"ention":1687,"isode":1688,"Ġyoung":1689,"Ġdeath":1690,"Ġoffer":1691,"lain":1692,"goodnight":1693,"ipolar":1694,"Ġblue":1695,"Ġrealize":1696,"Ġinclude":1697,"Ġhello":1698,"Ġepisode":1699,"Ġaddiction":1700,"Ġcollege":1701,"12":1702,"bl":1703,"cast":1704,"dr":1705,"ior":1706,"mal":1707,"much":1708,"prise":1709,"rove":1710,"tom":1711,"ting":1712,"Ġsil":1713,"era":1714,"Ġdance":1715,"Ġcity":1716,"Ġcourse":1717,"Ġcele":1718,"anxiety":1719,"Ġwow":1720,"Ġwelcome":1721,"Ġpol":1722,"Ġpuff":1723,"Ġpub":1724,"Ġpiece":1725,"Ġmad":1726,"Ġmag":1727,"Ġben":1728,"still":1729,"Ġag":1730,"Ġable":1731,"Ġanswer":1732,"ctor":1733,"ape":1734,"Ġchance":1735,"Ġchoose":1736,"Ġgoodnight":1737,"atever":1738,"Ġshoot":1739,"ross":1740,"Ġext":1741,"ationship":1742,"Ġrip":1743,"Ġplus":1744,"Ġphysic":1745,"Ġsunny":1746,"Ġcover":1747,"Ġgrand":1748,"upid":1749,"Ġonline":1750,"anyone":1751,"Ġstrong":1752,"Ġpatient":1753,"Ġremind":1754,"Ġhuge":1755,"Ġsuggest":1756,"Ġafternoon":1757,"even":1758,"find":1759,"first":1760,"give":1761,"mend":1762,"never":1763,"ose":1764,"ric":1765,"sis":1766,"te":1767,"top":1768,"tell":1769,"wake":1770,"Ġsort":1771,"Ġtour":1772,"Ġticket":1773,"Ġdress":1774,"Ġdude":1775,"Ġcap":1776,"Ġcatch":1777,"Ġpap":1778,"Ġpower":1779,"Ġmot":1780,"Ġbipolar":1781,"Ġstar":1782,"Ġstick":1783,"ider":1784,"Ġshirt":1785,"Ġalone":1786,"astic":1787,"Ġbeh":1788,"abis":1789,"arden":1790,"Ġconf":1791,"Ġcons":1792,"rush":1793,"Ġus":1794,"Ġguitar":1795,"Ġpray":1796,"Ġloc":1797,"Ġevening":1798,"Ġliterally":1799,"Ġcontin":1800,"Ġorder":1801,"Ġtrack":1802,"Ġlucky":1803,"Ġattention":1804,"Ġmedium":1805,"Ġbreakfast":1806,"Ġsuicidal":1807,"twitter":1808,"Ġregul":1809,"Ġcasebook":1810,"Ġdepressed":1811,"amazing":1812,"pretty":1813,"Ġyummy":1814,"Ġcannabis":1815,"bel":1816,"bea":1817,"den":1818,"ead":1819,"ka":1820,"miss":1821,"please":1822,"Ġve":1823,"real":1824,"rease":1825,"Ġsmo":1826,"Ġcal":1827,"Ġcard":1828,"Ġlady":1829,"Ġpark":1830,"ality":1831,"Ġbout":1832,"Ġbag":1833,"Ġfore":1834,"Ġfigure":1835,"arn":1836,"icle":1837,"Ġac":1838,"Ġstep":1839,"ision":1840,"Ġchill":1841,"room":1842,"Ġdef":1843,"Ġinsp":1844,"Ġalong":1845,"Ġvote":1846,"umb":1847,"Ġbeer":1848,"Ġhere":1849,"Ġspr":1850,"Ġprop":1851,"exercise":1852,"Ġuni":1853,"ager":1854,"izz":1855,"ift":1856,"many":1857,"Ġsevere":1858,"Ġteam":1859,"Ġrelationship":1860,"Ġaccount":1861,"Ġimprove":1862,"Ġsingle":1863,"Ġbusiness":1864,"form":1865,"Ġsurprise":1866,"Ġhalf":1867,"Ġtreatment":1868,"Ġwebsite":1869,"Ġcripp":1870,"Ġtherapy":1871,"Ġfilm":1872,"onestly":1873,"lic":1874,"long":1875,"lish":1876,"nect":1877,"solut":1878,"ta":1879,"zz":1880,"Ġice":1881,"Ġsy":1882,"Ġson":1883,"ero":1884,"Ġlayer":1885,"Ġgreen":1886,"Ġwear":1887,"Ġpen":1888,"Ġpet":1889,"Ġpop":1890,"Ġpack":1891,"Ġpract":1892,"Ġmillion":1893,"Ġbot":1894,"Ġhow":1895,"Ġhol":1896,"Ġhold":1897,"ens":1898,"orge":1899,"ommend":1900,"start":1901,"leave":1902,"inger":1903,"key":1904,"Ġev":1905,"Ġevent":1906,"Ġaut":1907,"Ġret":1908,"add":1909,"Ġstra":1910,"Ġlight":1911,"enty":1912,"ism":1913,"eap":1914,"Ġchurch":1915,"Ġsho":1916,"Ġdead":1917,"Ġdemo":1918,"Ġins":1919,"Ġinv":1920,"Ġvac":1921,"ession":1922,"ability":1923,"ational":1924,"lame":1925,"Ġcond":1926,"Ġeverybody":1927,"shine":1928,"Ġpresent":1929,"Ġsometimes":1930,"Ġfinal":1931,"ify":1932,"Ġrecommend":1933,"Ġavoid":1934,"Ġinterview":1935,"Ġsurv":1936,"everyone":1937,"Ġmemory":1938,"Ġharm":1939,"Ġdonas":1940,"halala":1941,"nothing":1942,"Ġinternet":1943,"someone":1944,"Ġspecial":1945,"solutely":1946,"bed":1947,"cra":1948,"dle":1949,"gly":1950,"girl":1951,"ier":1952,"jor":1953,"sun":1954,"ught":1955,"vy":1956,"Ġent":1957,"Ġir":1958,"Ġsol":1959,"Ġsession":1960,"Ġtil":1961,"Ġtown":1962,"Ġcor":1963,"Ġcou":1964,"Ġline":1965,"Ġgarden":1966,"Ġgorge":1967,"Ġwind":1968,"Ġwife":1969,"Ġmid":1970,"Ġbody":1971,"Ġfr":1972,"Ġfat":1973,"Ġhmm":1974,"ital":1975,"ich":1976,"Ġref":1977,"Ġnote":1978,"Ġstupid":1979,"rible":1980,"mean":1981,"ently":1982,"Ġang":1983,"Ġchee":1984,"ated":1985,"Ġdesign":1986,"ief":1987,"ulous":1988,"Ġall":1989,"Ġvie":1990,"Ġexactly":1991,"ask":1992,"Ġrid":1993,"Ġpoor":1994,"Ġeng":1995,"Ġproject":1996,"Ġcomm":1997,"Ġawake":1998,"more":1999,"Ġlevel":2000,"Ġgroup":2001,"Ġhotline":2002,"awe":2003,"Ġrecover":2004,"Ġarticle":2005,"sweet":2006,"Ġshopping":2007,"Ġoffice":2008,"guy":2009,"Ġhuman":2010,"Ġpanic":2011,"got":2012,"ho":2013,"ially":2014,"ming":2015,"uter":2016,"ving":2017,"wonder":2018,"Ġom":2019,"Ġ12":2020,"reet":2021,"Ġtem":2022,"Ġdue":2023,"Ġcam":2024,"Ġcream":2025,"ans":2026,"another":2027,"Ġgrow":2028,"Ġwood":2029,"Ġwine":2030,"Ġpa":2031,"Ġmis":2032,"Ġmum":2033,"Ġbear":2034,"Ġbud":2035,"Ġnon":2036,"Ġnick":2037,"Ġfru":2038,"Ġhist":2039,"enge":2040,"oth":2041,"stant":2042,"ley":2043,"Ġah":2044,"Ġstyle":2045,"Ġkit":2046,"ction":2047,"Ġchat":2048,"Ġyou":2049,"antastic":2050,"Ġjury":2051,"Ġconnect":2052,"Ġspir":2053,"rown":2054,"Ġcomment":2055,"Ġmoon":2056,"Ġsunshine":2057,"Ġwhatever":2058,"rent":2059,"gger":2060,"actually":2061,"ored":2062,"Ġcontact":2063,"acter":2064,"Ġcomputer":2065,"Ġstudent":2066,"Ġavid":2067,"Ġbox":2068,"Ġclear":2069,"Ġdraw":2070,"Ġwonderful":2071,"Ġterm":2072,"Ġpush":2073,"Ġsafe":2074,"Ġpossible":2075,"maybe":2076,"rill":2077,"Ġresult":2078,"Ġinstead":2079,"Ġcelebr":2080,"Ġcontinue":2081,"Ġview":2082,"coh":2083,"hn":2084,"hate":2085,"help":2086,"hmm":2087,"lin":2088,"ning":2089,"tr":2090,"totally":2091,"Ġis":2092,"remember":2093,"Ġdate":2094,"Ġdig":2095,"Ġdist":2096,"Ġcr":2097,"Ġcer":2098,"Ġcake":2099,"Ġcold":2100,"Ġwild":2101,"Ġpress":2102,"Ġmet":2103,"Ġmatch":2104,"Ġmain":2105,"Ġmass":2106,"Ġmama":2107,"aly":2108,"always":2109,"Ġbreat":2110,"Ġbike":2111,"Ġblame":2112,"Ġfill":2113,"Ġfast":2114,"Ġfla":2115,"Ġflow":2116,"oubt":2117,"Ġeither":2118,"Ġare":2119,"Ġasleep":2120,"Ġthan":2121,"though":2122,"ilar":2123,"iday":2124,"ident":2125,"Ġant":2126,"Ġchoice":2127,"Ġdesp":2128,"aste":2129,"Ġroll":2130,"Ġthinking":2131,"Ġmanage":2132,"Ġdoc":2133,"Ġdoctor":2134,"Ġjohn":2135,"Ġprogra":2136,"Ġanymore":2137,"Ġfail":2138,"agree":2139,"berry":2140,"Ġmention":2141,"life":2142,"Ġoften":2143,"ney":2144,"Ġdrop":2145,"Ġrelate":2146,"Ġaccept":2147,"Ġimport":2148,"Ġonion":2149,"Ġsituation":2150,"Ġpaint":2151,"Ġepic":2152,"Ġcharacter":2153,"Ġsexy":2154,"ibly":2155,"Ġannoy":2156,"Ġpromise":2157,"Ġdaily":2158,"Ġmajor":2159,"drink":2160,"Ġbehind":2161,"beautiful":2162,"Ġpractice":2163,"Ġvacation":2164,"Ġcondition":2165,"Ġcheese":2166,"Ġhistory":2167,"cohol":2168,"34":2169,"bad":2170,"cut":2171,"fuck":2172,"hap":2173,"iel":2174,"os":2175,"ply":2176,"ral":2177,"ror":2178,"somet":2179,"tion":2180,"uss":2181,"uce":2182,"vious":2183,"where":2184,"year":2185,"Ġer":2186,"Ġat":2187,"Ġslow":2188,"Ġsouth":2189,"Ġtip":2190,"Ġdouble":2191,"Ġcoun":2192,"Ġlately":2193,"Ġgym":2194,"Ġpeep":2195,"Ġmel":2196,"Ġmap":2197,"Ġmail":2198,"Ġban":2199,"Ġbow":2200,"Ġbul":2201,"Ġbath":2202,"Ġbright":2203,"Ġnat":2204,"Ġfake":2205,"Ġfab":2206,"Ġfeed":2207,"Ġhis":2208,"enn":2209,"iting":2210,"oul":2211,"Ġecon":2212,"Ġrev":2213,"Ġnotice":2214,"rip":2215,"rist":2216,"ili":2217,"olate":2218,"ellow":2219,"Ġgetting":2220,"idence":2221,"Ġanger":2222,"Ġchall":2223,"Ġsud":2224,"Ġalcohol":2225,"Ġjack":2226,"Ġjoy":2227,"Ġrad":2228,"Ġbegin":2229,"Ġconstant":2230,"istic":2231,"Ġadmit":2232,"udge":2233,"Ġener":2234,"Ġprocess":2235,"Ġaward":2236,"Ġprevent":2237,"Ġroad":2238,"Ġswim":2239,"update":2240,"Ġbuild":2241,"anger":2242,"Ġservice":2243,"Ġdrunk":2244,"Ġsuppose":2245,"Ġpersonal":2246,"Ġmedical":2247,"Ġclin":2248,"Ġtrouble":2249,"scri":2250,"Ġmarry":2251,"Ġabuse":2252,"tweet":2253,"Ġaffect":2254,"forget":2255,"ront":2256,"Ġdrag":2257,"Ġcreate":2258,"Ġseriously":2259,"Ġmodel":2260,"buy":2261,"ealous":2262,"Ġpaper":2263,"believe":2264,"Ġcrippling":2265,"Ġholiday":2266,"Ġcouple":2267,"Ġarea":2268,"haps":2269,"Ġeconom":2270,"Ġchallenge":2271,"dit":2272,"dra":2273,"fall":2274,"lit":2275,"tired":2276,"uc":2277,"ya":2278,"yep":2279,"yond":2280,"Ġsense":2281,"Ġte":2282,"eral":2283,"Ġdm":2284,"Ġcough":2285,"Ġlap":2286,"Ġlab":2287,"Ġgay":2288,"Ġpal":2289,"Ġpur":2290,"Ġpull":2291,"Ġpian":2292,"Ġparent":2293,"Ġmac":2294,"also":2295,"almost":2296,"Ġbre":2297,"Ġboo":2298,"Ġbank":2299,"Ġbur":2300,"Ġball":2301,"eless":2302,"stop":2303,"stud":2304,"Ġresp":2305,"change":2306,"Ġstand":2307,"Ġstreet":2308,"oodoo":2309,"ilight":2310,"under":2311,"ellent":2312,"Ġtwilight":2313,"Ġchick":2314,"Ġchoc":2315,"Ġja":2316,"Ġjour":2317,"Ġvol":2318,"ural":2319,"Ġrather":2320,"Ġweight":2321,"Ġweird":2322,"Ġrise":2323,"Ġconvers":2324,"Ġadvice":2325,"ppy":2326,"Ġperhaps":2327,"empt":2328,"Ġforce":2329,"Ġactivity":2330,"Ġcost":2331,"Ġblood":2332,"Ġlaw":2333,"Ġarrive":2334,"Ġsec":2335,"ival":2336,"Ġrace":2337,"Ġraise":2338,"Ġhotel":2339,"ogra":2340,"Ġits":2341,"Ġhealthy":2342,"Ġcollect":2343,"Ġtraum":2344,"Ġincred":2345,"Ġsky":2346,"ocus":2347,"Ġtopic":2348,"Ġdiffic":2349,"Ġnormal":2350,"Ġobse":2351,"Ġcurrent":2352,"Ġmarket":2353,"anna":2354,"Ġpodcast":2355,"Ġhomie":2356,"Ġmedication":2357,"Ġpsycholog":2358,"true":2359,"Ġphysical":2360,"Ġregularly":2361,"Ġsmoke":2362,"Ġforever":2363,"Ġstraight":2364,"Ġshoe":2365,"ughter":2366,"Ġcommun":2367,"Ġbuddy":2368,"Ġprogram":2369,"Ġimportant":2370,"Ġpiano":2371,"Ġconversation":2372,"bal":2373,"bet":2374,"bit":2375,"ciety":2376,"course":2377,"dic":2378,"down":2379,"fort":2380,"gle":2381,"gry":2382,"gative":2383,"jo":2384,"must":2385,"put":2386,"wr":2387,"Ġsir":2388,"Ġta":2389,"Ġtit":2390,"ina":2391,"ination":2392,"ern":2393,"ery":2394,"Ġden":2395,"Ġdet":2396,"Ġcreat":2397,"Ġcorn":2398,"Ġcous":2399,"Ġcout":2400,"Ġcult":2401,"Ġcamp":2402,"Ġlack":2403,"ana":2404,"Ġgl":2405,"Ġwoo":2406,"Ġpig":2407,"Ġpizz":2408,"Ġmate":2409,"Ġmall":2410,"Ġmount":2411,"already":2412,"Ġnet":2413,"Ġfol":2414,"Ġful":2415,"Ġfinger":2416,"Ġfront":2417,"Ġfocus":2418,"Ġhat":2419,"Ġhonestly":2420,"ether":2421,"learn":2422,"oogly":2423,"keep":2424,"Ġeh":2425,"Ġaff":2426,"Ġapart":2427,"Ġthree":2428,"ris":2429,"Ġlift":2430,"unt":2431,"olve":2432,"Ġking":2433,"Ġchair":2434,"ender":2435,"Ġdest":2436,"ies":2437,"Ġallow":2438,"fession":2439,"Ġje":2440,"Ġjess":2441,"Ġvi":2442,"Ġvict":2443,"andom":2444,"Ġrate":2445,"Ġround":2446,"Ġbeyond":2447,"asure":2448,"going":2449,"hew":2450,"Ġspam":2451,"Ġbackgr":2452,"Ġsore":2453,"Ġprayer":2454,"Ġprof":2455,"Ġprofession":2456,"Ġcommon":2457,"Ġquick":2458,"Ġactive":2459,"rend":2460,"ploy":2461,"ivid":2462,"ubby":2463,"Ġsmell":2464,"Ġsmart":2465,"Ġsmall":2466,"Ġcontr":2467,"Ġasso":2468,"Ġtruly":2469,"Ġhappiness":2470,"Ġcrash":2471,"Ġwarm":2472,"ugust":2473,"Ġboard":2474,"pose":2475,"Ġreduce":2476,"Ġovercome":2477,"versity":2478,"Ġterrible":2479,"Ġcookie":2480,"Ġlesson":2481,"excite":2482,"Ġfresh":2483,"Ġinfo":2484,"Ġgraduation":2485,"Ġhorse":2486,"Ġdiagnose":2487,"Ġlonely":2488,"tomorrow":2489,"Ġagree":2490,"Ġmotiv":2491,"Ġlocal":2492,"Ġproper":2493,"Ġhowever":2494,"Ġsurvive":2495,"Ġentire":2496,"Ġgorgeous":2497,"Ġangel":2498,"Ġflower":2499,"ield":2500,"Ġchocolate":2501,"Ġtrauma":2502,"Ġcousin":2503,"Ġcouture":2504,"Ġbackground":2505,"bate":2506,"big":2507,"boy":2508,"bout":2509,"cent":2510,"cure":2511,"dam":2512,"efit":2513,"fet":2514,"happ":2515,"hold":2516,"hang":2517,"light":2518,"live":2519,"mar":2520,"nat":2521,"sm":2522,"sal":2523,"sad":2524,"suff":2525,"week":2526,"Ġ'":2527,"Ġver":2528,"Ġign":2529,"rem":2530,"Ġsand":2531,"Ġsqu":2532,"Ġsoul":2533,"Ġtal":2534,"Ġtow":2535,"Ġtough":2536,"erry":2537,"Ġdoll":2538,"Ġdoubt":2539,"Ġcross":2540,"Ġlay":2541,"Ġland":2542,"Ġlame":2543,"Ġgig":2544,"Ġwill":2545,"Ġwall":2546,"Ġple":2547,"Ġpink":2548,"Ġpool":2549,"Ġporn":2550,"Ġbi":2551,"Ġbill":2552,"Ġna":2553,"Ġner":2554,"Ġnail":2555,"Ġfren":2556,"Ġhon":2557,"Ġhop":2558,"Ġhubby":2559,"atic":2560,"enter":2561,"elly":2562,"stem":2563,"oof":2564,"Ġest":2565,"Ġeff":2566,"Ġesc":2567,"Ġaim":2568,"Ġaugust":2569,"Ġrelease":2570,"Ġthat":2571,"eem":2572,"Ġstore":2573,"rage":2574,"Ġtwice":2575,"Ġyo":2576,"Ġshot":2577,"Ġshake":2578,"Ġshine":2579,"Ġdem":2580,"Ġdev":2581,"Ġdear":2582,"Ġinside":2583,"edu":2584,"Ġjudge":2585,"Ġjealous":2586,"Ġval":2587,"Ġvoice":2588,"Ġexist":2589,"Ġrow":2590,"igma":2591,"laim":2592,"Ġeveryday":2593,"Ġmania":2594,"shop":2595,"Ġsociety":2596,"pper":2597,"Ġenter":2598,"Ġprince":2599,"Ġcomb":2600,"Ġtooth":2601,"Ġprefer":2602,"Ġlog":2603,"Ġhomework":2604,"ection":2605,"Ġwhether":2606,"Ġactual":2607,"agine":2608,"Ġlazy":2609,"plan":2610,"soon":2611,"Ġposter":2612,"dec":2613,"Ġupload":2614,"Ġscare":2615,"Ġtruth":2616,"Ġtrump":2617,"Ġtrigger":2618,"Ġblock":2619,"Ġincrease":2620,"Ġabsolutely":2621,"Ġskin":2622,"Ġstrange":2623,"Ġregard":2624,"Ġdrama":2625,"Ġtraining":2626,"Ġharry":2627,"guess":2628,"Ġdifference":2629,"excited":2630,"uuuu":2631,"Ġearth":2632,"Ġruin":2633,"eeeeeeee":2634,"xxxxxxxxxxxxxxxx":2635,"Ġmagic":2636,"Ġsystem":2637,"Ġbottle":2638,"Ġenglish":2639,"Ġrecovery":2640,"Ġcertain":2641,"Ġsudden":2642,"Ġradio":2643,"Ġenergy":2644,"Ġclinical":2645,"little":2646,"Ġlaptop":2647,"study":2648,"ograph":2649,"Ġpizza":2650,"Ġfolk":2651,"Ġcontrol":2652,"suffer":2653,"Ġtoward":2654,"but":2655,"band":2656,"break":2657,"car":2658,"cute":2659,"ccess":2660,"dad":2661,"ev":2662,"fa":2663,"fight":2664,"gth":2665,"hh":2666,"hard":2667,"hour":2668,"high":2669,"iant":2670,"lie":2671,"mum":2672,"mark":2673,"pare":2674,"pass":2675,"ration":2676,"sur":2677,"tra":2678,"tune":2679,"ume":2680,"uate":2681,"ush":2682,"video":2683,"ycle":2684,"Ġsar":2685,"Ġsaw":2686,"Ġsale":2687,"iny":2688,"Ġdry":2689,"Ġdire":2690,"Ġdise":2691,"Ġcandy":2692,"Ġcrush":2693,"Ġly":2694,"Ġglo":2695,"Ġgoogly":2696,"Ġwanna":2697,"Ġpath":2698,"Ġmic":2699,"Ġblow":2700,"Ġboot":2701,"Ġbunch":2702,"Ġnan":2703,"Ġnone":2704,"Ġflo":2705,"Ġfire":2706,"Ġfantastic":2707,"Ġfield":2708,"Ġhoo":2709,"Ġhole":2710,"Ġhero":2711,"ator":2712,"etic":2713,"ork":2714,"ression":2715,"eliness":2716,"ourage":2717,"Ġess":2718,"Ġas":2719,"Ġape":2720,"Ġahead":2721,"sey":2722,"Ġreach":2723,"chn":2724,"ado":2725,"Ġstalk":2726,"Ġstage":2727,"rie":2728,"thought":2729,"Ġtwist":2730,"Ġanim":2731,"Ġcheap":2732,"Ġchrist":2733,"Ġgoodness":2734,"Ġshe":2735,"Ġshall":2736,"Ġshout":2737,"uty":2738,"uture":2739,"Ġalive":2740,"Ġvan":2741,"Ġring":2742,"Ġrout":2743,"Ġrich":2744,"Ġrandom":2745,"Ġfest":2746,"ounce":2747,"Ġworkout":2748,"asc":2749,"gover":2750,"rub":2751,"Ġadv":2752,"Ġprot":2753,"Ġprov":2754,"spend":2755,"Ġroot":2756,"Ġfave":2757,"Ġunless":2758,"Ġwho":2759,"Ġform":2760,"Ġdisapp":2761,"Ġmommy":2762,"Ġimage":2763,"Ġbird":2764,"Ġexcellent":2765,"action":2766,"ively":2767,"Ġrare":2768,"definitely":2769,"Ġemp":2770,"Ġcontent":2771,"Ġmont":2772,"Ġmonkey":2773,"Ġorg":2774,"Ġcompet":2775,"olesc":2776,"Ġattempt":2777,"Ġcancer":2778,"iction":2779,"Ġtrust":2780,"ailable":2781,"Ġcrap":2782,"Ġclub":2783,"Ġaccom":2784,"Ġdecision":2785,"Ġsadness":2786,"ference":2787,"Ġnobody":2788,"super":2789,"Ġsettle":2790,"Ġlower":2791,"Ġhosp":2792,"Ġoffic":2793,"Ġexplain":2794,"Ġinterested":2795,"Ġpuppy":2796,"Ġnorth":2797,"whel":2798,"Ġcopy":2799,"Ġpotent":2800,"Ġdaddy":2801,"Ġteacher":2802,"Ġsubject":2803,"Ġrule":2804,"Ġairport":2805,"Ġloneliness":2806,"Ġpublic":2807,"Ġbenefit":2808,"Ġconsider":2809,"Ġinspir":2810,"Ġinspire":2811,"Ġinvolve":2812,"Ġpressure":2813,"Ġfabulous":2814,"Ġconstantly":2815,"Ġeconomic":2816,"Ġjourney":2817,"Ġdifficult":2818,"Ġprofessional":2819,"Ġproperly":2820,"damn":2821,"happen":2822,"Ġdemand":2823,"Ġdisease":2824,"av":2825,"acc":2826,"bar":2827,"bir":2828,"bble":2829,"cake":2830,"case":2831,"call":2832,"di":2833,"duc":2834,"far":2835,"foot":2836,"god":2837,"how":2838,"just":2839,"kely":2840,"lant":2841,"luck":2842,"mic":2843,"might":2844,"oon":2845,"sa":2846,"sum":2847,"self":2848,"tea":2849,"vous":2850,"vote":2851,"vior":2852,"voodoo":2853,"win":2854,"wood":2855,"wise":2856,"yet":2857,"Ġi":2858,"Ġown":2859,"resh":2860,"Ġsly":2861,"Ġsear":2862,"Ġsci":2863,"onse":2864,"Ġtre":2865,"Ġtan":2866,"Ġtear":2867,"Ġtong":2868,"Ġtable":2869,"inion":2870,"ert":2871,"erate":2872,"Ġdep":2873,"Ġdiet":2874,"Ġdick":2875,"Ġcent":2876,"Ġcro":2877,"Ġcope":2878,"Ġclot":2879,"Ġcust":2880,"Ġcycle":2881,"angover":2882,"Ġgas":2883,"Ġwet":2884,"Ġwide":2885,"Ġweed":2886,"Ġwave":2887,"Ġwaste":2888,"Ġpe":2889,"Ġpill":2890,"Ġmist":2891,"Ġmouth":2892,"Ġbal":2893,"Ġbor":2894,"Ġbell":2895,"Ġbas":2896,"Ġbother":2897,"Ġburn":2898,"Ġbye":2899,"Ġbrown":2900,"Ġbored":2901,"Ġfear":2902,"Ġhy":2903,"Ġhea":2904,"Ġhack":2905,"Ġhide":2906,"Ġhath":2907,"Ġhilar":2908,"ato":2909,"atar":2910,"orable":2911,"ster":2912,"ked":2913,"Ġaust":2914,"Ġreject":2915,"Ġrespect":2916,"Ġthru":2917,"eech":2918,"Ġstove":2919,"Ġstren":2920,"Ġstream":2921,"Ġstigma":2922,"oph":2923,"illy":2924,"Ġgoal":2925,"vert":2926,"olation":2927,"raid":2928,"Ġtwit":2929,"Ġtwenty":2930,"ison":2931,"Ġsuit":2932,"Ġsuccess":2933,"Ġyea":2934,"Ġnear":2935,"Ġdesk":2936,"Ġdebt":2937,"ular":2938,"Ġalright":2939,"Ġjump":2940,"Ġvar":2941,"asty":2942,"Ġocc":2943,"Ġmusc":2944,"urity":2945,"Ġrub":2946,"Ġthanks":2947,"Ġspread":2948,"Ġmanager":2949,"Ġadult":2950,"Ġadolesc":2951,"Ġfunction":2952,"Ġenc":2953,"fulness":2954,"log":2955,"lock":2956,"usion":2957,"Ġperi":2958,"aint":2959,"Ġquit":2960,"Ġquote":2961,"Ġquality":2962,"Ġaction":2963,"Ġcoz":2964,"Ġtweeter":2965,"Ġsweep":2966,"Ġblend":2967,"Ġleft":2968,"Ġarm":2969,"Ġschedu":2970,"Ġplaylet":2971,"liant":2972,"Ġexcept":2973,"Ġexciting":2974,"Ġemploy":2975,"Ġwinter":2976,"Ġoption":2977,"Ġcompare":2978,"Ġcompany":2979,"Ġtruck":2980,"Ġaccord":2981,"Ġident":2982,"Ġdecrease":2983,"Ġavailable":2984,"hair":2985,"havior":2986,"two":2987,"Ġflight":2988,"Ġexpert":2989,"Ġreport":2990,"Ġslight":2991,"Ġindivid":2992,"supp":2993,"Ġoverwhel":2994,"Ġhost":2995,"Ġexpect":2996,"Ġsexual":2997,"Ġcredit":2998,"Ġdiscuss":2999,"Ġtherapist":3000,"problem":3001,"probably":3002,"Ġdaughter":3003,"rilliant":3004,"oohoo":3005,"congrats":3006,"congratulation":3007,"Ġcomplete":3008,"Ġdiagnosis":3009,"Ġcountry":3010,"Ġsilly":3011,"Ġmadam":3012,"Ġextra":3013,"Ġvegan":3014,"Ġcalm":3015,"Ġmiddle":3016,"Ġcamera":3017,"Ġspirit":3018,"Ġcelebrate":3019,"Ġmatchbook":3020,"Ġmassive":3021,"Ġannoying":3022,"Ġbowl":3023,"scribe":3024,"Ġobsession":3025,"Ġcurrently":3026,"write":3027,"Ġcreative":3028,"Ġnetwork":3029,"Ġfully":3030,"Ġtalent":3031,"Ġnervous":3032,"Ġfrench":3033,"Ġescape":3034,"Ġprincess":3035,"decide":3036,"Ġlyric":3037,"Ġprovide":3038,"Ġhospital":3039,"Ġsearch":3040,"Ġclothe":3041,"Ġmistake":3042,"Ġhilarious":3043,"Ġstrength":3044,"Ġmuscle":3045,"Ġschedule":3046,"Ġindividual":3047,"af":3048,"aur":3049,"bor":3050,"buck":3051,"cl":3052,"cel":3053,"cing":3054,"cook":3055,"care":3056,"cept":3057,"gn":3058,"hy":3059,"hit":3060,"hood":3061,"hol":3062,"house":3063,"hole":3064,"honestly":3065,"ky":3066,"kin":3067,"ker":3068,"lim":3069,"move":3070,"mind":3071,"mother":3072,"nah":3073,"oint":3074,"offic":3075,"pack":3076,"ray":3077,"sch":3078,"save":3079,"vi":3080,"woo":3081,"wear":3082,"walk":3083,"yea":3084,"yup":3085,"yesterday":3086,"Ġq":3087,"Ġod":3088,"Ġvers":3089,"Ġ34":3090,"rec":3091,"reme":3092,"Ġsin":3093,"Ġsell":3094,"Ġsis":3095,"Ġsever":3096,"Ġtight":3097,"Ġtend":3098,"Ġtum":3099,"Ġtim":3100,"Ġtool":3101,"Ġtac":3102,"Ġtrend":3103,"ino":3104,"inal":3105,"erable":3106,"ersey":3107,"Ġdumb":3108,"Ġdanger":3109,"Ġcu":3110,"Ġcir":3111,"Ġcast":3112,"Ġcru":3113,"Ġcode":3114,"ancial":3115,"ancy":3116,"Ġgn":3117,"Ġger":3118,"Ġgift":3119,"Ġmor":3120,"Ġmil":3121,"Ġmorrow":3122,"Ġmike":3123,"Ġnow":3124,"Ġnah":3125,"Ġfo":3126,"Ġfu":3127,"Ġfle":3128,"Ġfive":3129,"Ġfour":3130,"Ġfreak":3131,"Ġhangover":3132,"ature":3133,"ency":3134,"arter":3135,"omer":3136,"stic":3137,"icious":3138,"Ġeast":3139,"Ġegg":3140,"Ġeduc":3141,"Ġaha":3142,"Ġaka":3143,"severe":3144,"Ġrequ":3145,"Ġreview":3146,"cha":3147,"chen":3148,"ada":3149,"Ġliving":3150,"Ġlikely":3151,"oodle":3152,"Ġkiss":3153,"ceive":3154,"irm":3155,"Ġchem":3156,"odka":3157,"Ġyog":3158,"Ġnearly":3159,"roy":3160,"road":3161,"Ġinland":3162,"Ġinform":3163,"ied":3164,"ederal":3165,"Ġalthough":3166,"amin":3167,"Ġvs":3168,"Ġvine":3169,"Ġvodka":3170,"Ġmug":3171,"Ġmuse":3172,"Ġfew":3173,"Ġfever":3174,"absolutely":3175,"Ġwest":3176,"asm":3177,"Ġspot":3178,"imp":3179,"shit":3180,"share":3181,"arely":3182,"areness":3183,"Ġdoor":3184,"Ġguil":3185,"Ġprint":3186,"Ġplenty":3187,"Ġprofit":3188,"Ġcomic":3189,"Ġcommit":3190,"Ġawareness":3191,"Ġperform":3192,"Ġanytime":3193,"Ġprepare":3194,"exp":3195,"Ġload":3196,"person":3197,"emy":3198,"Ġquiet":3199,"Ġforgot":3200,"Ġcoach":3201,"ization":3202,"aker":3203,"Ġletter":3204,"rena":3205,"Ġdisability":3206,"plish":3207,"Ġplayer":3208,"ific":3209,"Ġgrade":3210,"Ġimagine":3211,"Ġkey":3212,"athy":3213,"Ġaddress":3214,"Ġrap":3215,"world":3216,"interest":3217,"cont":3218,"Ġscreen":3219,"Ġorange":3220,"Ġorgan":3221,"Ġopinion":3222,"Ġasshole":3223,"Ġlistening":3224,"Ġcanada":3225,"Ġfamous":3226,"Ġclim":3227,"Ġclue":3228,"Ġcloud":3229,"serious":3230,"Ġapple":3231,"Ġtrick":3232,"Ġtrans":3233,"Ġmeeting":3234,"Ġimpress":3235,"Ġmindfulness":3236,"Ġavatar":3237,"haust":3238,"Ġsweetie":3239,"Ġartist":3240,"Ġflat":3241,"brary":3242,"Ġmini":3243,"Ġminor":3244,"Ġnovel":3245,"Ġclassic":3246,"Ġbelly":3247,"Ġbelief":3248,"Ġindeed":3249,"suic":3250,"Ġpassport":3251,"Ġamong":3252,"Ġmemo":3253,"Ġdonate":3254,"Ġotherwise":3255,"door":3256,"Ġsnack":3257,"funny":3258,"Ġcurly":3259,"Ġpotter":3260,"Ġcongratulation":3261,"half":3262,"Ġhungry":3263,"Ġdeli":3264,"Ġresearcher":3265,"arently":3266,"Ġmedicine":3267,"Ġbutter":3268,"Ġbutton":3269,"Ġseasonal":3270,"Ġproductive":3271,"coming":3272,"Ġgrandma":3273,"Ġregular":3274,"Ġspring":3275,"Ġimprovement":3276,"Ġpenny":3277,"Ġevidence":3278,"Ġreturn":3279,"crazy":3280,"Ġfrank":3281,"Ġrefresh":3282,"host":3283,"Ġfruit":3284,"Ġfrust":3285,"Ġkitchen":3286,"Ġspiral":3287,"Ġbreath":3288,"Ġanti":3289,"ralia":3290,"something":3291,"viously":3292,"Ġcouns":3293,"Ġpurpose":3294,"Ġbreast":3295,"Ġsecret":3296,"Ġincredible":3297,"Ġcommunity":3298,"Ġtax":3299,"Ġcorner":3300,"Ġculture":3301,"Ġmountain":3302,"Ġprofile":3303,"Ġassociate":3304,"Ġmotivation":3305,"Ġesteem":3306,"Ġdirect":3307,"Ġnanny":3308,"Ġfloor":3309,"Ġessay":3310,"Ġanimal":3311,"Ġchristian":3312,"Ġorgandy":3313,"Ġaccomplish":3314,"Ġinspiration":3315,"birthday":3316,"summer":3317,"Ġslype":3318,"Ġtongue":3319,"Ġcustomer":3320,"Ġbasically":3321,"Ġadolescent":3322,"school":3323,"Ġodd":3324,"Ġversion":3325,"Ġseveral":3326,"Ġtaco":3327,"can":3328,"class":3329,"dis":3330,"drive":3331,"dinner":3332,"fact":3333,"fantastic":3334,"gen":3335,"gic":3336,"hod":3337,"hur":3338,"hand":3339,"hath":3340,"ius":3341,"joke":3342,"kid":3343,"ler":3344,"lay":3345,"late":3346,"male":3347,"na":3348,"nor":3349,"next":3350,"ock":3351,"pa":3352,"pic":3353,"pol":3354,"pod":3355,"past":3356,"pha":3357,"power":3358,"sion":3359,"send":3360,"song":3361,"sim":3362,"sub":3363,"sym":3364,"sense":3365,"too":3366,"test":3367,"town":3368,"uh":3369,"uggle":3370,"va":3371,"vation":3372,"wich":3373,"wberry":3374,"xy":3375,"zil":3376,"Ġay":3377,"Ġoo":3378,"Ġum":3379,"reg":3380,"rew":3381,"reason":3382,"Ġsan":3383,"Ġsam":3384,"Ġsway":3385,"Ġsem":3386,"ona":3387,"ony":3388,"onde":3389,"Ġtot":3390,"Ġtur":3391,"Ġtree":3392,"Ġtaste":3393,"Ġtenn":3394,"inter":3395,"inate":3396,"Ġdan":3397,"Ġdat":3398,"Ġdri":3399,"Ġdish":3400,"Ġdip":3401,"Ġdiv":3402,"Ġduty":3403,"Ġcoo":3404,"Ġcab":3405,"Ġcup":3406,"Ġlar":3407,"Ġlou":3408,"Ġlake":3409,"Ġlas":3410,"Ġlord":3411,"anoid":3412,"Ġgap":3413,"Ġgro":3414,"Ġgain":3415,"Ġgrill":3416,"Ġgiant":3417,"Ġwic":3418,"Ġward":3419,"Ġweak":3420,"Ġps":3421,"Ġpit":3422,"Ġply":3423,"Ġpun":3424,"Ġpant":3425,"Ġpiss":3426,"Ġpail":3427,"Ġpolar":3428,"Ġmi":3429,"Ġmam":3430,"Ġmill":3431,"Ġmast":3432,"Ġmath":3433,"Ġmode":3434,"ssy":3435,"Ġbon":3436,"Ġbay":3437,"Ġble":3438,"Ġbes":3439,"Ġbread":3440,"Ġnut":3441,"Ġfra":3442,"Ġfuture":3443,"Ġhill":3444,"Ġhook":3445,"Ġhall":3446,"Ġhus":3447,"Ġhip":3448,"eness":3449,"etely":3450,"orm":3451,"oray":3452,"orid":3453,"oria":3454,"omn":3455,"elle":3456,"eline":3457,"stay":3458,"star":3459,"stru":3460,"stuff":3461,"leg":3462,"icy":3463,"icate":3464,"Ġes":3465,"Ġap":3466,"Ġau":3467,"Ġaunt":3468,"vest":3469,"sec":3470,"Ġrepe":3471,"Ġrecess":3472,"char":3473,"Ġthrow":3474,"adow":3475,"Ġstri":3476,"Ġstone":3477,"Ġsteal":3478,"Ġlibrary":3479,"iler":3480,"und":3481,"unte":3482,"Ġgold":3483,"Ġgosh":3484,"ides":3485,"rase":3486,"Ġkn":3487,"Ġkar":3488,"Ġkelly":3489,"aper":3490,"Ġcha":3491,"Ġchip":3492,"Ġchann":3493,"Ġyep":3494,"Ġyah":3495,"Ġyak":3496,"Ġyouth":3497,"Ġyellow":3498,"Ġyork":3499,"Ġnegative":3500,"Ġshut":3501,"Ġship":3502,"Ġshape":3503,"rob":3504,"Ġdeck":3505,"Ġdemon":3506,"Ġinfin":3507,"Ġinno":3508,"amine":3509,"early":3510,"Ġju":3511,"Ġjam":3512,"Ġjim":3513,"Ġjersey":3514,"Ġtimes":3515,"Ġseek":3516,"ument":3517,"Ġmur":3518,"Ġmakeup":3519,"andon":3520,"Ġbeg":3521,"Ġbehavior":3522,"abit":3523,"Ġworker":3524,"Ġworking":3525,"asion":3526,"idemic":3527,"urel":3528,"Ġconv":3529,"Ġconference":3530,"Ġuh":3531,"Ġugh":3532,"Ġsport":3533,"Ġspeech":3534,"Ġmango":3535,"show":3536,"cif":3537,"Ġadorable":3538,"Ġpoke":3539,"que":3540,"Ġprove":3541,"mental":3542,"Ġcomfort":3543,"lovely":3544,"Ġawe":3545,"ipe":3546,"Ġpres":3547,"exactly":3548,"Ġrole":3549,"Ġloss":3550,"Ġfair":3551,"Ġwaiting":3552,"Ġbadly":3553,"Ġphrase":3554,"Ġmost":3555,"Ġquarter":3556,"Ġforgive":3557,"Ġcock":3558,"Ġsleepy":3559,"Ġcutie":3560,"Ġblast":3561,"plate":3562,"Ġfinancial":3563,"Ġplaying":3564,"Ġpartic":3565,"Ġbedtime":3566,"Ġmeal":3567,"Ġtheory":3568,"Ġexcuse":3569,"Ġrapper":3570,"Ġmusical":3571,"ighbor":3572,"Ġseries":3573,"Ġorig":3574,"Ġtravel":3575,"Ġcomplain":3576,"Ġelect":3577,"ption":3578,"Ġrelative":3579,"Ġbabe":3580,"Ġoutta":3581,"anyway":3582,"Ġcarry":3583,"Ġabs":3584,"Ġabandon":3585,"Ġwithin":3586,"Ġclearly":3587,"mommy":3588,"Ġepidemic":3589,"Ġregret":3590,"Ġslash":3591,"sume":3592,"Ġhock":3593,"Ġdepressive":3594,"Ġcharge":3595,"Ġexplo":3596,"Ġcooking":3597,"Ġmember":3598,"Ġcreep":3599,"Ġteenager":3600,"grade":3601,"Ġanni":3602,"Ġpromote":3603,"Ġfootball":3604,"Ġdownload":3605,"Ġpossibly":3606,"Ġlegit":3607,"heart":3608,"hearsal":3609,"Ġhuh":3610,"prom":3611,"Ġprize":3612,"Ġdelete":3613,"Ġfreed":3614,"Ġgraduate":3615,"olution":3616,"spective":3617,"Ġsimilar":3618,"Ġsimply":3619,"Ġgener":3620,"Ġsalt":3621,"Ġmotor":3622,"Ġconfuse":3623,"Ġusual":3624,"Ġbottom":3625,"Ġevil":3626,"ierce":3627,"Ġiron":3628,"Ġirrit":3629,"Ġcorre":3630,"Ġwindow":3631,"Ġconnection":3632,"Ġdistance":3633,"Ġmethod":3634,"Ġflavor":3635,"Ġdespite":3636,"sometimes":3637,"Ġnature":3638,"ennial":3639,"draw":3640,"Ġtechn":3641,"Ġresponse":3642,"understand":3643,"Ġchicken":3644,"Ġpsychology":3645,"better":3646,"join":3647,"Ġafford":3648,"Ġjean":3649,"Ġviol":3650,"fetime":3651,"natal":3652,"Ġsandwich":3653,"Ġdollar":3654,"Ġpleasure":3655,"Ġeffort":3656,"Ġscared":3657,"Ġsuddenly":3658,"favorite":3659,"Ġsawbuck":3660,"rief":3661,"Ġfestival":3662,"Ġmontane":3663,"Ġpotentially":3664,"Ġtrek":3665,"Ġaustralia":3666,"Ġencourage":3667,"Ġperiod":3668,"Ġidentify":3669,"Ġoverwhelming":3670,"aurant":3671,"Ġdangerous":3672,"Ġtotal":3673,"Ġtennis":3674,"Ġmillennial":3675,"Ġbesides":3676,"Ġhusband":3677,"Ġrepeat":3678,"Ġrecession":3679,"unteer":3680,"Ġchannel":3681,"Ġinfinity":3682,"bs":3683,"bra":3684,"burn":3685,"blast":3686,"bling":3687,"bby":3688,"cat":3689,"cri":3690,"cross":3691,"dom":3692,"done":3693,"dang":3694,"dog":3695,"fly":3696,"fill":3697,"feed":3698,"free":3699,"figure":3700,"gar":3701,"gust":3702,"hun":3703,"ik":3704,"iat":3705,"jury":3706,"ken":3707,"kind":3708,"knew":3709,"ll":3710,"lon":3711,"men":3712,"mally":3713,"mod":3714,"money":3715,"nie":3716,"nam":3717,"oir":3718,"off":3719,"por":3720,"place":3721,"rop":3722,"rod":3723,"roll":3724,"suck":3725,"turn":3726,"uous":3727,"uage":3728,"val":3729,"vage":3730,"ween":3731,"xious":3732,"Ġ2":3733,"Ġil":3734,"Ġut":3735,"Ġide":3736,"Ġour":3737,"Ġult":3738,"rer":3739,"rey":3740,"research":3741,"Ġsen":3742,"Ġsink":3743,"Ġsorrow":3744,"Ġsoup":3745,"Ġsolution":3746,"Ġten":3747,"Ġtol":3748,"Ġtut":3749,"Ġtire":3750,"Ġdir":3751,"Ġdye":3752,"Ġcin":3753,"Ġcell":3754,"Ġcod":3755,"Ġcrit":3756,"Ġcenter":3757,"Ġclaim":3758,"Ġlang":3759,"Ġloud":3760,"Ġloose":3761,"anch":3762,"Ġge":3763,"Ġgut":3764,"Ġgam":3765,"Ġgag":3766,"Ġgender":3767,"Ġghost":3768,"Ġwat":3769,"Ġwire":3770,"Ġwise":3771,"Ġpound":3772,"Ġpair":3773,"Ġmart":3774,"Ġmild":3775,"Ġmater":3776,"Ġmatt":3777,"Ġmult":3778,"alo":3779,"alright":3780,"Ġby":3781,"Ġbri":3782,"Ġbiz":3783,"Ġbust":3784,"Ġbog":3785,"Ġbible":3786,"Ġbrush":3787,"Ġbrilliant":3788,"Ġboohoo":3789,"Ġbarely":3790,"Ġnu":3791,"Ġnic":3792,"Ġnur":3793,"Ġnational":3794,"Ġnoodle":3795,"Ġfish":3796,"Ġfellow":3797,"Ġher":3798,"Ġham":3799,"Ġhog":3800,"Ġhoney":3801,"Ġhoop":3802,"Ġhonest":3803,"Ġhabit":3804,"ene":3805,"otic":3806,"etamine":3807,"ith":3808,"itor":3809,"itation":3810,"itamin":3811,"arm":3812,"omb":3813,"omy":3814,"elv":3815,"str":3816,"stress":3817,"stick":3818,"struggle":3819,"least":3820,"lement":3821,"ico":3822,"ician":3823,"ingo":3824,"Ġego":3825,"Ġaud":3826,"Ġapt":3827,"Ġreserve":3828,"Ġrefer":3829,"Ġreaction":3830,"Ġrehearsal":3831,"cher":3832,"chet":3833,"chill":3834,"Ġthreat":3835,"Ġthous":3836,"Ġthread":3837,"Ġthird":3838,"Ġthrill":3839,"Ġstom":3840,"Ġstoke":3841,"rif":3842,"Ġlim":3843,"Ġlimit":3844,"Ġlifetime":3845,"three":3846,"therap":3847,"ilst":3848,"iling":3849,"una":3850,"meet":3851,"aked":3852,"tern":3853,"rass":3854,"raise":3855,"Ġkat":3856,"Ġanaly":3857,"iron":3858,"apan":3859,"Ġchis":3860,"Ġchase":3861,"enda":3862,"Ġyard":3863,"Ġneighbor":3864,"Ġsham":3865,"Ġshame":3866,"Ġshift":3867,"Ġdement":3868,"Ġdedic":3869,"utish":3870,"Ġali":3871,"Ġalpha":3872,"Ġjunk":3873,"Ġjapan":3874,"Ġvast":3875,"Ġexhaust":3876,"urance":3877,"indeed":3878,"apparently":3879,"Ġrice":3880,"Ġbean":3881,"Ġfeature":3882,"Ġfemale":3883,"asal":3884,"Ġugly":3885,"iment":3886,"istent":3887,"shi":3888,"Ġsoft":3889,"eeky":3890,"ciation":3891,"Ġadm":3892,"Ġpoison":3893,"uddle":3894,"quel":3895,"quil":3896,"quite":3897,"Ġenv":3898,"Ġenemy":3899,"ource":3900,"ortion":3901,"Ġprice":3902,"beat":3903,"Ġawful":3904,"usually":3905,"Ġtoe":3906,"Ġpred":3907,"Ġphot":3908,"ective":3909,"Ġwhoop":3910,"Ġwhilst":3911,"Ġforum":3912,"Ġcoast":3913,"Ġswear":3914,"Ġsometime":3915,"Ġblink":3916,"Ġblip":3917,"Ġblonde":3918,"Ġdisgust":3919,"Ġlaurel":3920,"social":3921,"Ġsomeday":3922,"Ġsomebody":3923,"Ġsomehow":3924,"Ġlean":3925,"Ġarc":3926,"Ġgran":3927,"Ġintense":3928,"Ġbug":3929,"Ġbush":3930,"Ġbubble":3931,"athon":3932,"Ġpostnatal":3933,"Ġthere":3934,"Ġseat":3935,"Ġrab":3936,"Ġmission":3937,"Ġgirlfriend":3938,"deal":3939,"ignment":3940,"word":3941,"Ġamaz":3942,"Ġupon":3943,"Ġupset":3944,"Ġreading":3945,"Ġserve":3946,"Ġcoll":3947,"Ġscary":3948,"negative":3949,"Ġopp":3950,"Ġtrash":3951,"Ġtraffic":3952,"Ġtrailer":3953,"Ġassume":3954,"Ġstudio":3955,"Ġpersonality":3956,"Ġwitch":3957,"Ġcareer":3958,"Ġcrack":3959,"Ġappro":3960,"Ġtrona":3961,"Ġidol":3962,"Ġimpo":3963,"Ġonto":3964,"Ġoutfit":3965,"Ġsuffering":3966,"Ġmarch":3967,"Ġmaria":3968,"Ġmarathon":3969,"Ġchildhood":3970,"Ġcarol":3971,"Ġboat":3972,"Ġboom":3973,"Ġboson":3974,"Ġflorid":3975,"Ġhandle":3976,"bring":3977,"brother":3978,"Ġafraid":3979,"forgot":3980,"Ġskip":3981,"Ġskull":3982,"Ġnoise":3983,"Ġrestaurant":3984,"Ġhighly":3985,"ache":3986,"Ġhaircut":3987,"Ġoverall":3988,"versary":3989,"phone":3990,"photo":3991,"Ġpassion":3992,"Ġcharm":3993,"Ġcharity":3994,"Ġexpress":3995,"everything":3996,"Ġdrinking":3997,"airs":3998,"Ġpussy":3999,"Ġamount":4000,"Ġworthless":4001,"Ġdiab":4002,"Ġdiffer":4003,"Ġvision":4004,"Ġremix":4005,"Ġconcern":4006,"Ġhumor":4007,"ibility":4008,"Ġnormally":4009,"Ġanna":4010,"Ġannounce":4011,"gery":4012,"Ġsnuggle":4013,"Ġdiscover":4014,"whatever":4015,"Ġpotato":4016,"Ġstatement":4017,"ology":4018,"ological":4019,"pray":4020,"Ġmodern":4021,"partum":4022,"Ġsugar":4023,"tonight":4024,"Ġfrequ":4025,"Ġearn":4026,"board":4027,"Ġparanoid":4028,"Ġpsychiat":4029,"Ġbeth":4030,"Ġbetween":4031,"Ġdifferently":4032,"build":4033,"truly":4034,"Ġzone":4035,"Ġmixed":4036,"Ġspecif":4037,"Ġcompletely":4038,"Ġcompliment":4039,"Ġpeaceful":4040,"Ġbrazil":4041,"Ġblessing":4042,"Ġeffective":4043,"black":4044,"Ġsilent":4045,"Ġpolit":4046,"Ġmagn":4047,"Ġextreme":4048,"Ġsuggestion":4049,"Ġbehave":4050,"Ġconfirm":4051,"Ġusually":4052,"Ġcalla":4053,"Ġdefend":4054,"Ġspray":4055,"Ġsurprised":4056,"Ġcripple":4057,"Ġstrawberry":4058,"Ġinsomn":4059,"Ġinvite":4060,"Ġpresentation":4061,"Ġharmful":4062,"Ġsolo":4063,"Ġreflect":4064,"Ġisland":4065,"Ġisolation":4066,"Ġdesperate":4067,"Ġfailure":4068,"Ġerror":4069,"Ġslowly":4070,"Ġbathroom":4071,"Ġfeedback":4072,"Ġrevise":4073,"Ġrevision":4074,"ilipp":4075,"Ġvolunteer":4076,"Ġincredibly":4077,"Ġdetail":4078,"Ġapartment":4079,"Ġdestroy":4080,"Ġignor":4081,"remely":4082,"Ġwilling":4083,"Ġhonor":4084,"Ġdevil":4085,"Ġcombat":4086,"Ġcertainly":4087,"track":4088,"Ġsaran":4089,"Ġglobal":4090,"Ġbooty":4091,"Ġaslant":4092,"Ġroutine":4093,"Ġdisappoint":4094,"Ġempty":4095,"Ġcompetition":4096,"Ġofficial":4097,"barrass":4098,"lucky":4099,"Ġcrochet":4100,"Ġboring":4101,"Ġdesktop":4102,"Ġemployee":4103,"Ġgnaw":4104,"Ġmuseum":4105,"Ġguilty":4106,"interesting":4107,"Ġclimb":4108,"seriously":4109,"suicide":4110,"Ġrefreshing":4111,"Ġcounsel":4112,"symptom":4113,"Ġdatum":4114,"Ġdriver":4115,"Ġwicked":4116,"Ġanniversary":4117,"Ġfreedom":4118,"ropri":4119,"Ġlanguage":4120,"Ġbogie":4121,"Ġthreaten":4122,"Ġthousand":4123,"Ġdementia":4124,"Ġspecifically":4125,"Ġinsomnia":4126,"14":4127,"aff":4128,"ault":4129,"bat":4130,"born":4131,"bus":4132,"bye":4133,"bored":4134,"blog":4135,"ca":4136,"co":4137,"cal":4138,"cil":4139,"cap":4140,"catch":4141,"cold":4142,"count":4143,"dress":4144,"del":4145,"ded":4146,"dear":4147,"des":4148,"dest":4149,"dance":4150,"dude":4151,"differen":4152,"drug":4153,"doubt":4154,"eward":4155,"email":4156,"either":4157,"eiling":4158,"fl":4159,"fr":4160,"fel":4161,"fam":4162,"flow":4163,"fare":4164,"fire":4165,"fore":4166,"face":4167,"ga":4168,"gon":4169,"game":4170,"gue":4171,"hon":4172,"har":4173,"hea":4174,"ham":4175,"hum":4176,"hide":4177,"have":4178,"ipp":4179,"lf":4180,"loll":4181,"mat":4182,"mine":4183,"matter":4184,"million":4185,"nal":4186,"nic":4187,"nize":4188,"ps":4189,"pick":4190,"parent":4191,"rone":4192,"rate":4193,"rough":4194,"round":4195,"rodu":4196,"sia":4197,"since":4198,"sister":4199,"tee":4200,"tend":4201,"tie":4202,"tail":4203,"teen":4204,"text":4205,"ucc":4206,"vant":4207,"vint":4208,"wel":4209,"wis":4210,"wide":4211,"writ":4212,"xual":4213,"you":4214,"yum":4215,"zer":4216,"Ġou":4217,"Ġic":4218,"Ġow":4219,"Ġooh":4220,"Ġera":4221,"res":4222,"rest":4223,"relax":4224,"resent":4225,"Ġsat":4226,"Ġsel":4227,"Ġsnow":4228,"Ġsip":4229,"Ġsame":4230,"Ġsize":4231,"Ġsaint":4232,"online":4233,"onto":4234,"Ġted":4235,"Ġtatt":4236,"inary":4237,"erve":4238,"Ġdc":4239,"Ġdin":4240,"Ġdar":4241,"Ġdom":4242,"Ġdun":4243,"Ġduck":4244,"Ġca":4245,"Ġcow":4246,"Ġcart":4247,"Ġcine":4248,"Ġcas":4249,"Ġcour":4250,"Ġcli":4251,"Ġcater":4252,"Ġcub":4253,"Ġcere":4254,"Ġcash":4255,"Ġcouch":4256,"Ġclock":4257,"Ġceiling":4258,"Ġlam":4259,"Ġlem":4260,"Ġloop":4261,"ansit":4262,"Ġgee":4263,"Ġgun":4264,"Ġgent":4265,"Ġgrief":4266,"Ġgrey":4267,"Ġwee":4268,"Ġwol":4269,"Ġwale":4270,"Ġpin":4271,"Ġpie":4272,"Ġpud":4273,"Ġpix":4274,"Ġpup":4275,"Ġpunch":4276,"Ġpump":4277,"Ġpraise":4278,"Ġmer":4279,"Ġmen":4280,"Ġmong":4281,"Ġmotion":4282,"Ġmason":4283,"alth":4284,"Ġba":4285,"Ġbee":4286,"Ġbitter":4287,"Ġbum":4288,"Ġbite":4289,"Ġbree":4290,"Ġbang":4291,"Ġnep":4292,"Ġnar":4293,"Ġnine":4294,"Ġnude":4295,"Ġnasal":4296,"Ġfry":4297,"Ġfur":4298,"Ġfool":4299,"Ġfait":4300,"Ġfurn":4301,"Ġfederal":4302,"Ġhen":4303,"Ġhel":4304,"Ġheap":4305,"ata":4306,"enever":4307,"epend":4308,"oting":4309,"iti":4310,"its":4311,"iter":4312,"itate":4313,"iture":4314,"itude":4315,"orce":4316,"around":4317,"arily":4318,"oma":4319,"omant":4320,"stood":4321,"sturdy":4322,"strip":4323,"stairs":4324,"led":4325,"lee":4326,"lead":4327,"levi":4328,"iculous":4329,"Ġech":4330,"Ġeight":4331,"Ġreci":4332,"Ġreven":4333,"Ġreceive":4334,"chy":4335,"church":4336,"Ġthus":4337,"adrone":4338,"Ġstation":4339,"Ġstamp":4340,"Ġstorm":4341,"Ġsteward":4342,"rib":4343,"ried":4344,"riage":4345,"ride":4346,"thor":4347,"ilos":4348,"ung":4349,"uni":4350,"Ġgover":4351,"Ġgolf":4352,"med":4353,"medi":4354,"verine":4355,"ola":4356,"entist":4357,"Ġken":4358,"Ġkyle":4359,"Ġkelv":4360,"Ġanxious":4361,"isma":4362,"easy":4363,"cean":4364,"Ġchi":4365,"Ġcheeky":4366,"Ġyer":4367,"Ġyup":4368,"ateg":4369,"Ġneg":4370,"Ġneat":4371,"Ġshade":4372,"roid":4373,"robe":4374,"roken":4375,"Ġdeb":4376,"Ġdefe":4377,"Ġdebate":4378,"Ġink":4379,"Ġinvest":4380,"inkle":4381,"ula":4382,"ulner":4383,"illa":4384,"Ġvow":4385,"Ġvent":4386,"Ġvice":4387,"Ġvitamin":4388,"Ġvulner":4389,"Ġseed":4390,"Ġpicnic":4391,"Ġmud":4392,"Ġmush":4393,"inder":4394,"espe":4395,"anda":4396,"ander":4397,"andal":4398,"Ġray":4399,"Ġrite":4400,"Ġrud":4401,"Ġrhy":4402,"Ġbefriend":4403,"aby":4404,"Ġweep":4405,"Ġworkshop":4406,"Ġheat":4407,"Ġheck":4408,"Ġconse":4409,"Ġconman":4410,"Ġeverywhere":4411,"thanks":4412,"heel":4413,"Ġspear":4414,"Ġspider":4415,"Ġmanic":4416,"Ġmanife":4417,"istant":4418,"shut":4419,"cious":4420,"Ġpole":4421,"quick":4422,"ppling":4423,"Ġfund":4424,"Ġenlight":4425,"Ġguide":4426,"Ġguard":4427,"Ġguest":4428,"iac":4429,"Ġpronto":4430,"Ġplant":4431,"Ġjoint":4432,"Ġprog":4433,"Ġprobe":4434,"bless":4435,"Ġhelping":4436,"Ġhelpful":4437,"beer":4438,"Ġtoast":4439,"Ġprem":4440,"Ġpreview":4441,"exper":4442,"Ġrosy":4443,"perfect":4444,"Ġphilipp":4445,"Ġmore":4446,"Ġmock":4447,"emotion":4448,"Ġuncle":4449,"Ġqueen":4450,"Ġwhenever":4451,"Ġforth":4452,"Ġcoke":4453,"ized":4454,"Ġsleepless":4455,"Ġswing":4456,"Ġblah":4457,"Ġbliss":4458,"Ġlaunch":4459,"movie":4460,"Ġsomewhere":4461,"Ġfinale":4462,"sica":4463,"Ġarmy":4464,"Ġbrunch":4465,"ified":4466,"Ġreality":4467,"manage":4468,"Ġgrant":4469,"Ġimm":4470,"Ġimbal":4471,"Ġimmedi":4472,"Ġwriting":4473,"Ġhealing":4474,"Ġinto":4475,"Ġintrodu":4476,"ggy":4477,"ggie":4478,"Ġbuzz":4479,"Ġpostpartum":4480,"Ġmeat":4481,"Ġaddition":4482,"Ġserena":4483,"Ġrape":4484,"assion":4485,"debate":4486,"worry":4487,"Ġsurely":4488,"ognize":4489,"Ġupcoming":4490,"Ġembarrass":4491,"Ġitaly":4492,"awake":4493,"Ġrecently":4494,"Ġcontest":4495,"Ġcontract":4496,"Ġserver":4497,"Ġwinner":4498,"Ġscar":4499,"Ġscrew":4500,"ountain":4501,"Ġcompassion":4502,"Ġassignment":4503,"Ġattend":4504,"Ġattract":4505,"Ġcancel":4506,"Ġfamili":4507,"Ġwarn":4508,"Ġrelief":4509,"Ġclip":4510,"ered":4511,"rating":4512,"wards":4513,"sitive":4514,"Ġmarvel":4515,"Ġchildren":4516,"Ġsinger":4517,"Ġsinging":4518,"Ġbob":4519,"Ġmighty":4520,"Ġrainy":4521,"Ġflu":4522,"Ġflour":4523,"Ġflick":4524,"brate":4525,"Ġfighting":4526,"Ġskill":4527,"hopefully":4528,"Ġreplace":4529,"Ġstring":4530,"daily":4531,"Ġeasily":4532,"Ġsuperman":4533,"pleasure":4534,"vention":4535,"Ġhooray":4536,"Ġoffend":4537,"Ġtermin":4538,"Ġfancy":4539,"fridge":4540,"mony":4541,"month":4542,"Ġpattern":4543,"Ġdonut":4544,"Ġremove":4545,"Ġbarley":4546,"grad":4547,"Ġaddicted":4548,"Ġsnap":4549,"Ġobtain":4550,"Ġobviously":4551,"whoop":4552,"Ġdowntown":4553,"Ġcurse":4554,"Ġpossibility":4555,"Ġexcitement":4556,"cycle":4557,"heard":4558,"ologize":4559,"prince":4560,"proud":4561,"Ġgrab":4562,"Ġgrass":4563,"party":4564,"Ġprior":4565,"Ġprison":4566,"Ġhunt":4567,"Ġdelicious":4568,"Ġinfl":4569,"box":4570,"follower":4571,"Ġparam":4572,"Ġresource":4573,"Ġkiller":4574,"Ġsubmit":4575,"minute":4576,"settle":4577,"trust":4578,"Ġzero":4579,"Ġsimony":4580,"Ġgenu":4581,"Ġbaseball":4582,"Ġhorrible":4583,"Ġjustice":4584,"Ġproductivity":4585,"blue":4586,"Ġpolice":4587,"Ġpolicy":4588,"Ġpublish":4589,"Ġagenda":4590,"Ġextremely":4591,"Ġphysically":4592,"Ġcapital":4593,"Ġcontinuous":4594,"Ġvesica":4595,"realize":4596,"Ġsmooth":4597,"Ġacross":4598,"Ġdefic":4599,"tax":4600,"zzle":4601,"Ġsyn":4602,"Ġpeter":4603,"ension":4604,"ensive":4605,"Ġautom":4606,"eapon":4607,"Ġshock":4608,"Ġrecommendation":4609,"Ġsolve":4610,"Ġwindy":4611,"Ġallay":4612,"Ġridiculous":4613,"Ġengage":4614,"Ġtempor":4615,"Ġnonmember":4616,"Ġcelebrity":4617,"Ġdistract":4618,"Ġcrunch":4619,"Ġbreathe":4620,"Ġflag":4621,"Ġmajority":4622,"fucking":4623,"Ġmelisma":4624,"Ġbanish":4625,"Ġbanana":4626,"Ġbully":4627,"Ġswimming":4628,"Ġbuilding":4629,"Ġlabel":4630,"elessness":4631,"Ġrespond":4632,"understood":4633,"Ġjazz":4634,"Ġbloody":4635,"Ġsecurity":4636,"Ġobsess":4637,"Ġpsychologist":4638,"download":4639,"fortun":4640,"Ġvictim":4641,"Ġvictory":4642,"Ġspamme":4643,"Ġassociation":4644,"Ġvery":4645,"Ġignore":4646,"Ġsquare":4647,"Ġbikin":4648,"Ġvalue":4649,"shopping":4650,"Ġentertain":4651,"Ġcombine":4652,"Ġskinny":4653,"Ġregardless":4654,"eeeeeeeeeeeeeeee":4655,"xxxxxxxxxxxxxxxxxxxxxxxxxxxxxxxx":4656,"Ġtowards":4657,"breakfast":4658,"hhhh":4659,"Ġmicrod":4660,"Ġstalker":4661,"thoughts":4662,"Ġroute":4663,"Ġprotect":4664,"Ġdisappear":4665,"Ġofficially":4666,"Ġiris":4667,"Ġowner":4668,"Ġscience":4669,"Ġbalance":4670,"Ġheavy":4671,"vertise":4672,"support":4673,"ception":4674,"officially":4675,"Ġcruel":4676,"Ġgermany":4677,"Ġmoron":4678,"Ġmilk":4679,"Ġnowhere":4680,"Ġfox":4681,"Ġfuel":4682,"Ġeducate":4683,"Ġrequire":4684,"Ġchemical":4685,"Ġyoga":4686,"Ġdeliver":4687,"Ġbreastfeed":4688,"podcast":4689,"Ġlarge":4690,"Ġlouis":4691,"Ġbleed":4692,"Ġstrike":4693,"Ġgolden":4694,"Ġinnocent":4695,"Ġjimmy":4696,"Ġmurder":4697,"Ġmostly":4698,"Ġoriginal":4699,"promise":4700,"Ġirritability":4701,"crippling":4702,"hungry":4703,"lonely":4704,"namon":4705,"Ġdirty":4706,"Ġcinnamon":4707,"Ġnicely":4708,"Ġhogtie":4709,"Ġaudio":4710,"therapy":4711,"Ġanalysis":4712,"ironment":4713,"Ġadmire":4714,"Ġenvironment":4715,"Ġpredict":4716,"Ġrabbit":4717,"Ġamazon":4718,"Ġimposs":4719,"Ġdiabete":4720,"ropriate":4721,"heavy":4722,"vintage":4723,"Ġtattoo":4724,"Ġcourt":4725,"Ġlemon":4726,"ansition":4727,"Ġgentle":4728,"Ġnephew":4729,"Ġfaith":4730,"Ġfurniture":4731,"omantic":4732,"leviate":4733,"Ġrecipe":4734,"Ġkelvin":4735,"Ġdefeat":4736,"especially":4737,"Ġmanifest":4738,"Ġenlighten":4739,"Ġimbalance":4740,"Ġintroduce":4741,"Ġfamiliar":4742,"Ġbikini":4743,"Ġmicrodot":4744,"au":4745,"az":4746,"aut":4747,"bi":4748,"bon":4749,"bol":4750,"bank":4751,"bish":4752,"bud":4753,"bird":4754,"brush":4755,"brilliant":4756,"boohoo":4757,"broken":4758,"baby":4759,"cre":4760,"cop":4761,"cry":4762,"cam":4763,"cur":4764,"corn":4765,"cup":4766,"crat":4767,"close":4768,"cele":4769,"clin":4770,"dm":4771,"die":4772,"dream":4773,"doc":4774,"ey":4775,"eater":4776,"fan":4777,"fat":4778,"fil":4779,"fab":4780,"fine":4781,"fix":4782,"freak":4783,"ftw":4784,"fair":4785,"future":4786,"federal":4787,"gay":4788,"gig":4789,"gain":4790,"gree":4791,"garden":4792,"hot":4793,"his":4794,"hill":4795,"hile":4796,"hug":4797,"ih":4798,"iot":4799,"ja":4800,"ju":4801,"jealous":4802,"king":4803,"kill":4804,"lady":4805,"later":4806,"lord":4807,"layer":4808,"loma":4809,"met":4810,"mood":4811,"mid":4812,"mis":4813,"mall":4814,"mus":4815,"mix":4816,"math":4817,"mama":4818,"matic":4819,"non":4820,"none":4821,"nment":4822,"name":4823,"note":4824,"national":4825,"oen":4826,"pay":4827,"pen":4828,"pop":4829,"pain":4830,"park":4831,"pump":4832,"pathy":4833,"rad":4834,"run":4835,"rant":4836,"rum":4837,"range":4838,"rition":4839,"sl":4840,"sen":4841,"sing":4842,"sil":4843,"sla":4844,"sick":4845,"sire":4846,"six":4847,"saw":4848,"sigh":4849,"slin":4850,"tal":4851,"told":4852,"trip":4853,"uum":4854,"ugg":4855,"ussion":4856,"vis":4857,"vite":4858,"via":4859,"vity":4860,"vile":4861,"will":4862,"wind":4863,"ware":4864,"wire":4865,"wife":4866,"whew":4867,"with":4868,"xic":4869,"yo":4870,"yal":4871,"yah":4872,"yru":4873,"yog":4874,"zu":4875,"zard":4876,"ziness":4877,"Ġol":4878,"Ġif":4879,"Ġoop":4880,"Ġ14":4881,"reply":4882,"Ġsi":4883,"Ġsep":4884,"Ġsight":4885,"Ġsane":4886,"Ġsizz":4887,"ons":4888,"onin":4889,"onion":4890,"onas":4891,"Ġti":4892,"Ġtar":4893,"Ġtic":4894,"Ġtee":4895,"Ġtent":4896,"Ġtab":4897,"Ġtall":4898,"Ġtorn":4899,"Ġtag":4900,"Ġtact":4901,"Ġtang":4902,"Ġtail":4903,"Ġtiny":4904,"Ġtasty":4905,"Ġtension":4906,"inar":4907,"inst":4908,"ines":4909,"inely":4910,"invite":4911,"Ġdu":4912,"Ġdy":4913,"Ġdome":4914,"Ġdone":4915,"Ġdell":4916,"Ġdare":4917,"Ġdough":4918,"Ġdrain":4919,"Ġduff":4920,"Ġdub":4921,"Ġdwell":4922,"Ġdull":4923,"Ġdread":4924,"Ġdirt":4925,"Ġdivid":4926,"Ġcel":4927,"Ġcame":4928,"Ġcath":4929,"Ġcoup":4930,"Ġcrown":4931,"Ġcateg":4932,"Ġlad":4933,"Ġlect":4934,"Ġloll":4935,"Ġlung":4936,"Ġgal":4937,"Ġgot":4938,"Ġgar":4939,"Ġgri":4940,"Ġgir":4941,"Ġgum":4942,"Ġgala":4943,"Ġgrip":4944,"Ġglee":4945,"Ġwis":4946,"Ġwight":4947,"Ġwash":4948,"Ġwhere":4949,"Ġwane":4950,"Ġwheel":4951,"Ġweapon":4952,"Ġpi":4953,"Ġpy":4954,"Ġpep":4955,"Ġpee":4956,"Ġpil":4957,"Ġped":4958,"Ġpas":4959,"Ġpure":4960,"Ġport":4961,"Ġpity":4962,"Ġpint":4963,"Ġpunk":4964,"Ġplain":4965,"Ġpierce":4966,"Ġmb":4967,"Ġmat":4968,"Ġmas":4969,"Ġmig":4970,"Ġmish":4971,"Ġmouse":4972,"Ġmash":4973,"ssert":4974,"alb":4975,"alse":4976,"Ġbin":4977,"Ġbou":4978,"Ġbone":4979,"Ġbend":4980,"Ġbatch":4981,"Ġbah":4982,"Ġbuck":4983,"Ġborrow":4984,"Ġbuff":4985,"Ġbark":4986,"Ġbass":4987,"Ġbore":4988,"Ġbull":4989,"Ġbillion":4990,"Ġbask":4991,"Ġberry":4992,"ionist":4993,"Ġnigh":4994,"Ġniece":4995,"Ġnasty":4996,"Ġnaked":4997,"Ġfi":4998,"Ġfant":4999,"Ġfort":5000,"Ġfame":5001,"Ġfile":5002,"Ġfather":5003,"Ġflet":5004,"Ġfade":5005,"Ġfalse":5006,"Ġhm":5007,"Ġhic":5008,"Ġhint":5009,"Ġhike":5010,"ating":5011,"atory":5012,"atically":5013,"eng":5014,"eno":5015,"enough":5016,"eph":5017,"otta":5018,"otonin":5019,"eta":5020,"itute":5021,"itzer":5022,"ors":5023,"orate":5024,"orial":5025,"arre":5026,"resso":5027,"eland":5028,"epressant":5029,"stal":5030,"station":5031,"style":5032,"stupid":5033,"stitute":5034,"les":5035,"ledge":5036,"levant":5037,"icar":5038,"icip":5039,"icated":5040,"Ġequ":5041,"Ġedit":5042,"Ġax":5043,"Ġach":5044,"Ġaid":5045,"Ġaven":5046,"Ġache":5047,"Ġarena":5048,"sem":5049,"seem":5050,"Ġreck":5051,"Ġrema":5052,"Ġreward":5053,"Ġrent":5054,"Ġresume":5055,"Ġthee":5056,"Ġthis":5057,"Ġthro":5058,"Ġthigh":5059,"Ġthumb":5060,"Ġthief":5061,"Ġthrough":5062,"Ġstat":5063,"Ġstem":5064,"Ġstreak":5065,"Ġstock":5066,"rious":5067,"opical":5068,"option":5069,"Ġlip":5070,"Ġliqu":5071,"onesia":5072,"ther":5073,"than":5074,"ilation":5075,"unless":5076,"mess":5077,"memo":5078,"medic":5079,"verse":5080,"tery":5081,"entless":5082,"ential":5083,"idy":5084,"idea":5085,"idate":5086,"idation":5087,"idepressant":5088,"rah":5089,"rap":5090,"raine":5091,"Ġkore":5092,"Ġkris":5093,"Ġanal":5094,"eable":5095,"apt":5096,"apse":5097,"Ġchal":5098,"Ġchop":5099,"Ġchap":5100,"Ġchine":5101,"Ġchuck":5102,"Ġchalk":5103,"Ġchile":5104,"Ġchamp":5105,"Ġchoir":5106,"Ġchico":5107,"Ġsucc":5108,"Ġsuspect":5109,"Ġye":5110,"Ġyucc":5111,"ategy":5112,"ged":5113,"Ġneck":5114,"Ġnecess":5115,"Ġshel":5116,"Ġshelf":5117,"Ġsheep":5118,"Ġshadow":5119,"Ġworm":5120,"roke":5121,"rock":5122,"rover":5123,"Ġdescribe":5124,"Ġdegree":5125,"Ġdesire":5126,"Ġdessert":5127,"Ġinner":5128,"Ġinsec":5129,"Ġcomes":5130,"Ġcomedy":5131,"utal":5132,"iere":5133,"Ġliked":5134,"ulia":5135,"ulty":5136,"antly":5137,"antage":5138,"Ġale":5139,"Ġaloud":5140,"Ġalike":5141,"Ġalert":5142,"Ġalleviate":5143,"ami":5144,"illain":5145,"Ġjay":5146,"Ġjun":5147,"Ġjig":5148,"Ġjail":5149,"Ġjane":5150,"Ġvir":5151,"Ġvoc":5152,"Ġvoodoo":5153,"Ġvoting":5154,"Ġvicar":5155,"Ġvillain":5156,"umin":5157,"umble":5158,"aster":5159,"Ġox":5160,"Ġocean":5161,"hero":5162,"Ġexplan":5163,"Ġknowledge":5164,"Ġmuss":5165,"Ġmuslin":5166,"Ġwellie":5167,"urally":5168,"esium":5169,"Ġrh":5170,"Ġrat":5171,"Ġrope":5172,"Ġrough":5173,"Ġrange":5174,"Ġrude":5175,"Ġroof":5176,"Ġromantic":5177,"Ġbead":5178,"asy":5179,"igion":5180,"lare":5181,"Ġthankful":5182,"Ġconcent":5183,"Ġconcept":5184,"Ġconsume":5185,"rup":5186,"ruct":5187,"Ġuser":5188,"heck":5189,"Ġspa":5190,"Ġspin":5191,"Ġspeed":5192,"Ġspain":5193,"Ġspect":5194,"imate":5195,"imagine":5196,"istry":5197,"istration":5198,"shot":5199,"shall":5200,"Ġnighty":5201,"Ġsoap":5202,"Ġsoftw":5203,"ciss":5204,"Ġadoption":5205,"Ġpoly":5206,"quence":5207,"ppa":5208,"Ġdose":5209,"Ġdock":5210,"Ġench":5211,"Ġplug":5212,"Ġprosp":5213,"mention":5214,"Ġlifestyle":5215,"Ġfriendly":5216,"Ġhelped":5217,"become":5218,"Ġawait":5219,"Ġmayor":5220,"spe":5221,"Ġtrying":5222,"Ġperk":5223,"Ġperry":5224,"Ġpersu":5225,"Ġpercent":5226,"Ġperspective":5227,"Ġanyways":5228,"Ġtoxic":5229,"Ġprevious":5230,"Ġprescri":5231,"Ġpregn":5232,"Ġpretend":5233,"Ġrobe":5234,"Ġroyal":5235,"Ġloser":5236,"Ġwatching":5237,"tless":5238,"loves":5239,"Ġphase":5240,"Ġphilos":5241,"Ġphoen":5242,"Ġmoreen":5243,"Ġsung":5244,"Ġsunburn":5245,"emic":5246,"employ":5247,"emplate":5248,"Ġunlim":5249,"Ġunfortun":5250,"Ġunemploy":5251,"ected":5252,"Ġqual":5253,"Ġwhis":5254,"Ġactor":5255,"ague":5256,"agination":5257,"agna":5258,"Ġcore":5259,"Ġcoal":5260,"Ġcole":5261,"Ġcogn":5262,"Ġused":5263,"Ġuseful":5264,"izard":5265,"izure":5266,"izoph":5267,"Ġsleeping":5268,"aking":5269,"merge":5270,"renia":5271,"Ġswell":5272,"Ġswap":5273,"Ġsweat":5274,"Ġswift":5275,"Ġsweater":5276,"Ġblind":5277,"Ġblizz":5278,"Ġlaund":5279,"plus":5280,"Ġcheat":5281,"Ġleister":5282,"Ġlewis":5283,"Ġaril":5284,"Ġbrad":5285,"Ġbrake":5286,"Ġbrand":5287,"Ġbrandy":5288,"Ġschizoph":5289,"Ġmomma":5290,"sky":5291,"Ġpartner":5292,"Ġbedroom":5293,"Ġgrin":5294,"Ġgroo":5295,"Ġgrind":5296,"Ġground":5297,"Ġimper":5298,"Ġimagination":5299,"Ġtony":5300,"Ġintend":5301,"Ġkeg":5302,"Ġkeel":5303,"Ġmere":5304,"Ġworldwide":5305,"Ġthey":5306,"Ġtheme":5307,"Ġsew":5308,"Ġsequel":5309,"Ġseizure":5310,"ivor":5311,"ivate":5312,"Ġrage":5313,"Ġmissy":5314,"Ġbeast":5315,"Ġbeauty":5316,"dead":5317,"worth":5318,"contr":5319,"constru":5320,"ublic":5321,"Ġrecent":5322,"Ġrecept":5323,"Ġrecognize":5324,"Ġmusician":5325,"Ġcontrib":5326,"Ġsermon":5327,"Ġserotonin":5328,"Ġmonitor":5329,"Ġillust":5330,"Ġscout":5331,"Ġscream":5332,"Ġscrub":5333,"Ġscene":5334,"Ġscandal":5335,"Ġord":5336,"Ġopera":5337,"Ġtragic":5338,"Ġcompilation":5339,"Ġpersonally":5340,"Ġmeaning":5341,"Ġmeanwh":5342,"Ġelection":5343,"Ġelev":5344,"Ġcanon":5345,"Ġcanal":5346,"Ġwitness":5347,"Ġmyst":5348,"Ġmeditation":5349,"Ġhappily":5350,"Ġheaded":5351,"Ġcrab":5352,"Ġboyfriend":5353,"Ġwarning":5354,"Ġwarfare":5355,"Ġrelat":5356,"Ġrelieve":5357,"Ġrelentless":5358,"Ġclar":5359,"Ġclick":5360,"serv":5361,"Ġappear":5362,"Ġapplic":5363,"Ġappropriate":5364,"Ġtransition":5365,"Ġaccent":5366,"Ġaccident":5367,"certain":5368,"Ġimpact":5369,"Ġimpair":5370,"makes":5371,"Ġtrial":5372,"Ġoutlook":5373,"Ġoutdoor":5374,"anything":5375,"anytime":5376,"Ġdecent":5377,"Ġdecade":5378,"Ġmarine":5379,"Ġmindset":5380,"Ġavian":5381,"Ġsinge":5382,"Ġcargo":5383,"poor":5384,"point":5385,"Ġability":5386,"Ġkinda":5387,"Ġkindness":5388,"twit":5389,"Ġraining":5390,"Ġflip":5391,"Ġflash":5392,"Ġwithdraw":5393,"brutish":5394,"often":5395,"Ġfighter":5396,"Ġafric":5397,"force":5398,"Ġminus":5399,"Ġnoon":5400,"Ġrepresent":5401,"Ġrepublic":5402,"Ġstrategy":5403,"Ġsurgery":5404,"Ġhighlight":5405,"Ġregistration":5406,"acha":5407,"ocado":5408,"Ġslap":5409,"Ġslide":5410,"Ġslip":5411,"Ġsoundtrack":5412,"Ġfarmer":5413,"Ġindie":5414,"Ġindia":5415,"Ġindust":5416,"Ġindicate":5417,"Ġindonesia":5418,"sushi":5419,"Ġovertime":5420,"Ġholy":5421,"Ġsharehol":5422,"phic":5423,"Ġterror":5424,"Ġplanet":5425,"Ġsignal":5426,"Ġsignific":5427,"Ġpuzzle":5428,"Ġamp":5429,"cheer":5430,"Ġworthy":5431,"Ġdammit":5432,"Ġharmony":5433,"Ġdiary":5434,"Ġdiversity":5435,"Ġdiaper":5436,"Ġopening":5437,"sleepy":5438,"Ġteenage":5439,"Ġhumid":5440,"Ġleader":5441,"grand":5442,"Ġbatman":5443,"Ġnorway":5444,"Ġandroid":5445,"Ġpromo":5446,"doctor":5447,"Ġfootie":5448,"Ġobsc":5449,"Ġdisco":5450,"Ġdiscount":5451,"Ġdiscussion":5452,"who":5453,"Ġdeeply":5454,"Ġpickle":5455,"Ġsecondary":5456,"overcome":5457,"Ġcrisis":5458,"Ġpastor":5459,"Ġexample":5460,"Ġlegal":5461,"tension":5462,"Ġespresso":5463,"Ġspeaker":5464,"Ġproduce":5465,"excellent":5466,"Ġvisitor":5467,"together":5468,"retch":5469,"Ġdarkness":5470,"Ġgrace":5471,"Ġgrasp":5472,"Ġgravity":5473,"Ġpositivity":5474,"Ġpride":5475,"Ġhunter":5476,"Ġrelaxed":5477,"Ġperfectly":5478,"Ġsickness":5479,"Ġtesting":5480,"Ġdelusion":5481,"Ġpancake":5482,"Ġearl":5483,"Ġinfant":5484,"urchase":5485,"iagnose":5486,"Ġcolleague":5487,"Ġmedicate":5488,"Ġafterwards":5489,"Ġcleaning":5490,"boat":5491,"Ġpsycho":5492,"theory":5493,"Ġrobot":5494,"Ġzoo":5495,"relate":5496,"Ġsimple":5497,"Ġgenius":5498,"Ġhorror":5499,"Ġkicking":5500,"weather":5501,"Ġsalad":5502,"Ġsalary":5503,"Ġbrace":5504,"Ġbracel":5505,"Ġblessed":5506,"Ġfitness":5507,"Ġsilk":5508,"Ġcelebs":5509,"Ġpolish":5510,"Ġmagaz":5511,"Ġphysics":5512,"Ġgranddad":5513,"Ġreminder":5514,"techn":5515,"Ġcapt":5516,"Ġcaptain":5517,"Ġpapa":5518,"Ġpowerful":5519,"Ġconscious":5520,"Ġlocation":5521,"beach":5522,"mission":5523,"Ġacad":5524,"Ġacne":5525,"Ġaccess":5526,"Ġchilling":5527,"Ġuniversity":5528,"Ġunique":5529,"Ġuniverse":5530,"Ġpencil":5531,"Ġauto":5532,"Ġautistic":5533,"Ġautograph":5534,"Ġdemocrat":5535,"Ġinsurance":5536,"Ġvacuum":5537,"Ġsurvival":5538,"Ġsurvivor":5539,"crast":5540,"girlfriend":5541,"sunny":5542,"sundae":5543,"Ġfrom":5544,"wonderful":5545,"Ġtemple":5546,"Ġtemplate":5547,"Ġgrowth":5548,"Ġmiserable":5549,"Ġbudget":5550,"Ġkitty":5551,"Ġkitten":5552,"Ġcelebration":5553,"Ġmaintain":5554,"Ġbreathing":5555,"Ġdocument":5556,"Ġjohns":5557,"years":5558,"Ġmelton":5559,"Ġbowling":5560,"Ġnaturally":5561,"iliate":5562,"Ġsudan":5563,"Ġalcoholic":5564,"Ġjacket":5565,"Ġeconomy":5566,"Ġtequil":5567,"Ġlabor":5568,"Ġbanking":5569,"Ġburgh":5570,"Ġburden":5571,"Ġballoon":5572,"Ġjournal":5573,"Ġvolley":5574,"Ġcollection":5575,"Ġdifficulty":5576,"job":5577,"Ġtitan":5578,"Ġtitle":5579,"Ġdenmark":5580,"Ġcultural":5581,"Ġcamping":5582,"Ġglance":5583,"Ġdestination":5584,"Ġjewel":5585,"Ġvibe":5586,"Ġvictoria":5587,"Ġquickly":5588,"natural":5589,"smile":5590,"sadly":5591,"weekend":5592,"Ġverge":5593,"Ġsquat":5594,"Ġlayout":5595,"Ġgiggle":5596,"Ġnaan":5597,"Ġhopelessness":5598,"Ġjudgement":5599,"Ġvalley":5600,"Ġvalidation":5601,"uuuuuuuu":5602,"daddy":5603,"evidence":5604,"highly":5605,"Ġsari":5606,"Ġpathetic":5607,"Ġashe":5608,"ascade":5609,"Ġadvantage":5610,"Ġwhoa":5611,"Ġmontage":5612,"diversity":5613,"safe":5614,"teach":5615,"Ġcentury":5616,"Ġpeer":5617,"Ġbrownie":5618,"Ġhyper":5619,"Ġheaven":5620,"Ġoccur":5621,"Ġoccasion":5622,"Ġrubber":5623,"suppose":5624,"Ġspiritual":5625,"afraid":5626,"official":5627,"recently":5628,"Ġtimeline":5629,"Ġcuppa":5630,"Ġcircle":5631,"Ġgerman":5632,"Ġeducation":5633,"Ġrequest":5634,"Ġyogurt":5635,"Ġinformation":5636,"expected":5637,"Ġminority":5638,"Ġfrustrating":5639,"classic":5640,"normal":5641,"simple":5642,"simply":5643,"Ġaye":5644,"Ġsample":5645,"Ġseminar":5646,"Ġturtle":5647,"interview":5648,"Ġdancer":5649,"Ġdancing":5650,"Ġdiploma":5651,"Ġdivorce":5652,"Ġlaser":5653,"Ġlasagna":5654,"Ġpunish":5655,"Ġmaster":5656,"Ġfraud":5657,"Ġapologize":5658,"Ġaura":5659,"Ġauthor":5660,"charlie":5661,"Ġknife":5662,"Ġkarma":5663,"Ġjuice":5664,"Ġconvince":5665,"Ġpresence":5666,"Ġpresident":5667,"Ġcocktail":5668,"Ġparticular":5669,"Ġelectro":5670,"Ġhocking":5671,"Ġexplore":5672,"Ġgeneration":5673,"Ġmotorcycle":5674,"Ġconfused":5675,"Ġcorrect":5676,"Ġviolent":5677,"modern":5678,"office":5679,"Ġilleg":5680,"Ġsenior":5681,"Ġcritic":5682,"Ġwireless":5683,"Ġmartin":5684,"Ġmaterial":5685,"Ġmattress":5686,"Ġmultip":5687,"Ġbizarre":5688,"Ġstomach":5689,"Ġdedicate":5690,"Ġexhausted":5691,"Ġbeanie":5692,"Ġphotograph":5693,"Ġdisgusting":5694,"Ġtherefore":5695,"Ġapproach":5696,"Ġannouncement":5697,"Ġdiscovery":5698,"Ġfrequent":5699,"Ġpsychiatry":5700,"Ġignorance":5701,"Ġcounseling":5702,"deserve":5703,"difference":5704,"flower":5705,"honor":5706,"human":5707,"Ġouter":5708,"Ġowe":5709,"Ġteddy":5710,"Ġdarling":5711,"Ġcinema":5712,"Ġclient":5713,"Ġcereal":5714,"Ġwolverine":5715,"Ġmongrel":5716,"Ġbacon":5717,"Ġbitterness":5718,"Ġnarciss":5719,"Ġecho":5720,"Ġgovernment":5721,"Ġmushroom":5722,"Ġrhyme":5723,"Ġconsequence":5724,"Ġprogress":5725,"experience":5726,"emotional":5727,"Ġimmune":5728,"Ġreplacement":5729,"Ġparamour":5730,"Ġautomatically":5731,"Ġtemporary":5732,"Ġimpossible":5733,"camera":5734,"celebrate":5735,"clinical":5736,"willing":5737,"Ġolive":5738,"Ġtornado":5739,"Ġtactic":5740,"Ġtailor":5741,"Ġdividend":5742,"Ġcoupon":5743,"Ġcategory":5744,"Ġlecture":5745,"Ġmigraine":5746,"Ġmishap":5747,"Ġbasket":5748,"Ġfletcher":5749,"ottava":5750,"Ġachieve":5751,"Ġremain":5752,"Ġthroat":5753,"Ġkorea":5754,"Ġyucca":5755,"Ġexplanation":5756,"Ġromanticize":5757,"Ġsoftware":5758,"Ġprosper":5759,"Ġphoenix":5760,"Ġunlimited":5761,"Ġunemployment":5762,"Ġblizzard":5763,"Ġlaundry":5764,"Ġschizophrenia":5765,"Ġcontribute":5766,"Ġmeanwhile":5767,"Ġimpairment":5768,"Ġwithdrawal":5769,"Ġafrican":5770,"Ġrepublican":5771,"Ġshareholder":5772,"Ġbracelet":5773,"Ġmagazine":5774,"Ġtequila":5775,"ae":5776,"aah":5777,"aft":5778,"aoke":5779,"bre":5780,"bin":5781,"boo":5782,"bow":5783,"bake":5784,"bell":5785,"bis":5786,"bie":5787,"bul":5788,"bur":5789,"bub":5790,"bought":5791,"bition":5792,"bipolar":5793,"brown":5794,"bounce":5795,"block":5796,"barely":5797,"cu":5798,"cst":5799,"col":5800,"cell":5801,"city":5802,"cus":5803,"core":5804,"cause":5805,"camp":5806,"cuss":5807,"cuddle":5808,"det":5809,"depress":5810,"dly":5811,"dry":5812,"dig":5813,"due":5814,"dler":5815,"donas":5816,"dulia":5817,"diagnose":5818,"eut":5819,"equ":5820,"ement":5821,"eye":5822,"event":5823,"eze":5824,"ffe":5825,"fla":5826,"four":5827,"fold":5828,"front":5829,"field":5830,"fiction":5831,"fancy":5832,"gi":5833,"gal":5834,"ging":5835,"gent":5836,"gam":5837,"gment":5838,"gym":5839,"googly":5840,"hic":5841,"hack":5842,"hook":5843,"hance":5844,"hog":5845,"hurt":5846,"horia":5847,"ioid":5848,"iency":5849,"ique":5850,"iju":5851,"jay":5852,"jun":5853,"jam":5854,"jack":5855,"jess":5856,"jamin":5857,"kle":5858,"kward":5859,"kris":5860,"lar":5861,"lack":5862,"lab":5863,"lunch":5864,"mp":5865,"mel":5866,"mad":5867,"mur":5868,"match":5869,"mare":5870,"mile":5871,"mild":5872,"mory":5873,"made":5874,"mpol":5875,"mountain":5876,"nel":5877,"nee":5878,"nap":5879,"nope":5880,"nity":5881,"nip":5882,"native":5883,"niece":5884,"nancy":5885,"oor":5886,"oly":5887,"oil":5888,"oard":5889,"pu":5890,"pin":5891,"pal":5892,"pion":5893,"pet":5894,"pea":5895,"pap":5896,"pink":5897,"ped":5898,"pher":5899,"pict":5900,"pany":5901,"pnot":5902,"psych":5903,"push":5904,"paint":5905,"paper":5906,"padrone":5907,"purchase":5908,"rot":5909,"rite":5910,"rand":5911,"ratch":5912,"rint":5913,"rated":5914,"sar":5915,"sol":5916,"sell":5917,"she":5918,"sist":5919,"sud":5920,"squ":5921,"sage":5922,"soul":5923,"tear":5924,"toc":5925,"tify":5926,"tempt":5927,"trend":5928,"telle":5929,"tered":5930,"ux":5931,"uge":5932,"ube":5933,"uence":5934,"uugh":5935,"uition":5936,"vo":5937,"vast":5938,"vive":5939,"viet":5940,"vag":5941,"vac":5942,"vict":5943,"voc":5944,"vvy":5945,"wy":5946,"wat":5947,"was":5948,"wall":5949,"woman":5950,"warn":5951,"xistent":5952,"yon":5953,"young":5954,"za":5955,"zor":5956,"zone":5957,"Ġing":5958,"Ġell":5959,"Ġite":5960,"Ġire":5961,"Ġath":5962,"Ġumb":5963,"Ġottava":5964,"resp":5965,"reesome":5966,"release":5967,"respect":5968,"recom":5969,"receive":5970,"Ġsor":5971,"Ġsop":5972,"Ġsake":5973,"Ġsod":5974,"Ġsie":5975,"Ġsed":5976,"Ġsack":5977,"Ġsab":5978,"Ġsine":5979,"Ġslo":5980,"Ġsold":5981,"Ġsect":5982,"Ġsass":5983,"Ġsigh":5984,"Ġsept":5985,"Ġsier":5986,"Ġsedu":5987,"Ġsection":5988,"onic":5989,"onize":5990,"Ġtor":5991,"Ġting":5992,"Ġtad":5993,"Ġtone":5994,"Ġtap":5995,"Ġtam":5996,"Ġtack":5997,"Ġtoy":5998,"Ġtort":5999,"Ġtick":6000,"Ġtren":6001,"Ġtote":6002,"Ġtower":6003,"Ġtann":6004,"Ġtape":6005,"Ġtender":6006,"Ġtidy":6007,"Ġtrover":6008,"Ġtube":6009,"inc":6010,"inx":6011,"iner":6012,"inke":6013,"ers":6014,"erous":6015,"eria":6016,"erance":6017,"erno":6018,"erica":6019,"erior":6020,"error":6021,"Ġdot":6022,"Ġdor":6023,"Ġdop":6024,"Ġdod":6025,"Ġdime":6026,"Ġdab":6027,"Ġdeed":6028,"Ġdim":6029,"Ġdust":6030,"Ġdash":6031,"Ġdarn":6032,"Ġdrill":6033,"Ġdingo":6034,"Ġcs":6035,"Ġcay":6036,"Ġcit":6037,"Ġces":6038,"Ġcand":6039,"Ġcla":6040,"Ġcud":6041,"Ġcoh":6042,"Ġcue":6043,"Ġcree":6044,"Ġcsc":6045,"Ġcuddle":6046,"Ġcascade":6047,"Ġlion":6048,"Ġlat":6049,"Ġlone":6050,"Ġloun":6051,"Ġlag":6052,"Ġlatt":6053,"Ġlash":6054,"Ġlumb":6055,"Ġlens":6056,"Ġlinger":6057,"Ġladd":6058,"Ġlaker":6059,"ano":6060,"ansp":6061,"answer":6062,"analy":6063,"Ġga":6064,"Ġgear":6065,"Ġglow":6066,"Ġgeek":6067,"Ġgib":6068,"Ġgoose":6069,"Ġgroom":6070,"Ġgreet":6071,"Ġgrub":6072,"Ġgyru":6073,"Ġwen":6074,"Ġwent":6075,"Ġwas":6076,"Ġware":6077,"Ġwhing":6078,"Ġwreak":6079,"Ġwelf":6080,"Ġwoke":6081,"Ġwizard":6082,"Ġpor":6083,"Ġpul":6084,"Ġpear":6085,"Ġpla":6086,"Ġpist":6087,"Ġpour":6088,"Ġpile":6089,"Ġpeak":6090,"Ġpale":6091,"Ġpond":6092,"Ġphew":6093,"Ġpoof":6094,"Ġpimp":6095,"Ġpipe":6096,"Ġpadrone":6097,"Ġpacha":6098,"Ġms":6099,"Ġmal":6100,"Ġmea":6101,"Ġmut":6102,"Ġmant":6103,"Ġmes":6104,"Ġmand":6105,"Ġmout":6106,"Ġmour":6107,"Ġmex":6108,"Ġmach":6109,"Ġmale":6110,"Ġmerry":6111,"Ġmasc":6112,"Ġmaking":6113,"alic":6114,"alone":6115,"alog":6116,"alize":6117,"aluate":6118,"Ġber":6119,"Ġbun":6120,"Ġbake":6121,"Ġbol":6122,"Ġbod":6123,"Ġbast":6124,"Ġbind":6125,"Ġbold":6126,"Ġbise":6127,"Ġbail":6128,"Ġborder":6129,"Ġbump":6130,"Ġbounce":6131,"Ġbilly":6132,"Ġbison":6133,"Ġbaker":6134,"Ġbrief":6135,"Ġbomb":6136,"Ġbingo":6137,"ionship":6138,"Ġnin":6139,"Ġnud":6140,"Ġnause":6141,"Ġfer":6142,"Ġfell":6143,"Ġfid":6144,"Ġfed":6145,"Ġfif":6146,"Ġfife":6147,"Ġflame":6148,"Ġferry":6149,"Ġfiction":6150,"Ġfierce":6151,"Ġfountain":6152,"Ġhay":6153,"Ġhid":6154,"Ġhur":6155,"Ġhatch":6156,"Ġhous":6157,"Ġhire":6158,"Ġhater":6159,"Ġhence":6160,"Ġhoc":6161,"Ġhump":6162,"Ġhash":6163,"Ġhula":6164,"atre":6165,"ener":6166,"enom":6167,"enous":6168,"encer":6169,"enery":6170,"epic":6171,"epage":6172,"otect":6173,"otype":6174,"eth":6175,"eting":6176,"etto":6177,"ette":6178,"etchy":6179,"itan":6180,"itle":6181,"itch":6182,"itive":6183,"itage":6184,"itial":6185,"itality":6186,"org":6187,"oral":6188,"oring":6189,"orative":6190,"organ":6191,"orpion":6192,"arb":6193,"aring":6194,"arrow":6195,"arrive":6196,"ressive":6197,"omic":6198,"oming":6199,"omeness":6200,"ela":6201,"elo":6202,"else":6203,"elette":6204,"sta":6205,"step":6206,"stone":6207,"stra":6208,"stir":6209,"stage":6210,"stock":6211,"ouche":6212,"oustic":6213,"oubling":6214,"lex":6215,"level":6216,"left":6217,"iced":6218,"ication":6219,"icorn":6220,"Ġeke":6221,"Ġeve":6222,"Ġedge":6223,"Ġeager":6224,"Ġai":6225,"Ġast":6226,"Ġaver":6227,"Ġaah":6228,"Ġash":6229,"Ġaman":6230,"Ġagg":6231,"Ġamber":6232,"Ġaspect":6233,"vey":6234,"veal":6235,"sexy":6236,"Ġren":6237,"Ġrear":6238,"Ġreun":6239,"Ġreme":6240,"Ġrevel":6241,"Ġreact":6242,"Ġreass":6243,"Ġrenew":6244,"Ġreplay":6245,"Ġreference":6246,"Ġrechar":6247,"Ġrewire":6248,"Ġrelevant":6249,"Ġresem":6250,"Ġreconstru":6251,"chor":6252,"choice":6253,"christ":6254,"chilly":6255,"Ġnotary":6256,"Ġnotify":6257,"Ġthick":6258,"Ġthrive":6259,"Ġthril":6260,"Ġthunder":6261,"adic":6262,"adir":6263,"adise":6264,"admit":6265,"advertise":6266,"eeze":6267,"Ġstal":6268,"Ġstun":6269,"Ġstea":6270,"Ġstack":6271,"Ġstab":6272,"Ġstare":6273,"Ġstrain":6274,"Ġstable":6275,"Ġsteak":6276,"Ġstrip":6277,"Ġstroke":6278,"Ġstumble":6279,"Ġstruct":6280,"ria":6281,"rior":6282,"rium":6283,"ript":6284,"rimin":6285,"ribut":6286,"open":6287,"opia":6288,"Ġlid":6289,"Ġlime":6290,"Ġliver":6291,"cker":6292,"ooding":6293,"thm":6294,"thou":6295,"thus":6296,"third":6297,"thrit":6298,"thinke":6299,"ilo":6300,"ilt":6301,"ilder":6302,"ilize":6303,"ilistic":6304,"ilitate":6305,"unity":6306,"uncle":6307,"unexpected":6308,"Ġgob":6309,"meate":6310,"mester":6311,"memory":6312,"olly":6313,"olute":6314,"ternoon":6315,"termin":6316,"ello":6317,"ellor":6318,"ellcheck":6319,"iddy":6320,"ideline":6321,"rasound":6322,"Ġkink":6323,"Ġkno":6324,"Ġkail":6325,"Ġkoto":6326,"Ġkami":6327,"Ġkilo":6328,"Ġtwin":6329,"Ġtweak":6330,"Ġani":6331,"Ġanime":6332,"Ġankle":6333,"Ġanchor":6334,"isy":6335,"iser":6336,"isor":6337,"ising":6338,"isce":6339,"isive":6340,"isolation":6341,"eaf":6342,"eas":6343,"irrel":6344,"ctly":6345,"ctively":6346,"apable":6347,"apology":6348,"Ġchor":6349,"Ġchime":6350,"Ġchur":6351,"Ġchest":6352,"Ġchore":6353,"Ġchug":6354,"Ġchina":6355,"Ġcherry":6356,"Ġchilly":6357,"Ġsue":6358,"Ġsull":6359,"Ġsushi":6360,"Ġgoodman":6361,"Ġgoodbye":6362,"Ġyell":6363,"Ġyappy":6364,"Ġyour":6365,"Ġyike":6366,"ateful":6367,"geon":6368,"gedy":6369,"Ġneut":6370,"Ġneur":6371,"Ġneither":6372,"Ġshy":6373,"Ġshank":6374,"Ġshack":6375,"Ġshould":6376,"Ġshush":6377,"Ġshipp":6378,"Ġworst":6379,"Ġworried":6380,"root":6381,"rose":6382,"rovert":6383,"Ġdeser":6384,"Ġdesc":6385,"Ġdevice":6386,"Ġinn":6387,"Ġinse":6388,"Ġinapp":6389,"Ġincon":6390,"Ġinert":6391,"Ġinjury":6392,"Ġinequ":6393,"utch":6394,"ulate":6395,"ulum":6396,"eden":6397,"edge":6398,"antity":6399,"Ġalter":6400,"amen":6401,"america":6402,"fear":6403,"Ġjet":6404,"Ġjar":6405,"Ġjum":6406,"Ġjord":6407,"Ġjelly":6408,"Ġjih":6409,"Ġjinx":6410,"Ġvet":6411,"Ġvom":6412,"Ġviv":6413,"Ġvary":6414,"Ġvoid":6415,"Ġvamp":6416,"Ġvirt":6417,"Ġvenge":6418,"Ġviny":6419,"Ġvene":6420,"ookie":6421,"Ġseeing":6422,"Ġlotus":6423,"umor":6424,"umption":6425,"astically":6426,"Ġoas":6427,"Ġoxy":6428,"Ġexhi":6429,"Ġexpo":6430,"Ġexpose":6431,"Ġknown":6432,"Ġmuft":6433,"Ġwellness":6434,"ffiti":6435,"urb":6436,"urbate":6437,"artment":6438,"appreciate":6439,"esy":6440,"esomeness":6441,"Ġrove":6442,"Ġranger":6443,"Ġrural":6444,"Ġrookie":6445,"Ġrumor":6446,"Ġbeep":6447,"Ġbehalf":6448,"Ġbeware":6449,"Ġbestir":6450,"aba":6451,"ablish":6452,"ations":6453,"aha":6454,"getic":6455,"getting":6456,"Ġworkplace":6457,"asleep":6458,"asha":6459,"asury":6460,"igate":6461,"igation":6462,"igue":6463,"igmat":6464,"igenous":6465,"Ġriver":6466,"lazy":6467,"goe":6468,"goal":6469,"Ġthankfully":6470,"Ġconven":6471,"ruin":6472,"Ġuter":6473,"thankful":6474,"health":6475,"Ġspit":6476,"Ġspark":6477,"Ġspons":6478,"Ġspencer":6479,"Ġsparrow":6480,"Ġspellcheck":6481,"imic":6482,"import":6483,"imidate":6484,"ishas":6485,"shake":6486,"short":6487,"shoot":6488,"shadow":6489,"Ġbackstage":6490,"Ġnighttime":6491,"Ġwanton":6492,"Ġsoak":6493,"Ġsoviet":6494,"ciple":6495,"Ġadore":6496,"Ġadvertise":6497,"Ġpoker":6498,"quot":6499,"queen":6500,"question":6501,"ppe":6502,"ppie":6503,"Ġfundra":6504,"Ġfunnie":6505,"Ġenvel":6506,"Ġensure":6507,"Ġenroll":6508,"Ġenforce":6509,"Ġenhance":6510,"ously":6511,"derly":6512,"Ġgust":6513,"full":6514,"Ġprat":6515,"Ġproof":6516,"Ġplot":6517,"Ġplastic":6518,"Ġjog":6519,"Ġjoey":6520,"Ġprospective":6521,"Ġprocrast":6522,"major":6523,"Ġcommer":6524,"Ġcombo":6525,"Ġlifesa":6526,"Ġfriendship":6527,"Ġlookout":6528,"logy":6529,"losion":6530,"venience":6531,"issant":6532,"bec":6533,"best":6534,"begin":6535,"behavior":6536,"Ġawkward":6537,"Ġawesomeness":6538,"Ġmaya":6539,"spa":6540,"speak":6541,"space":6542,"spberry":6543,"spray":6544,"sphoria":6545,"usage":6546,"usual":6547,"Ġperman":6548,"Ġperception":6549,"Ġpermeate":6550,"ipant":6551,"Ġanybody":6552,"Ġpreserve":6553,"Ġprescribe":6554,"Ġpreviously":6555,"Ġpreppe":6556,"exam":6557,"exhaust":6558,"Ġroc":6559,"ained":6560,"Ġloat":6561,"Ġlock":6562,"Ġlover":6563,"Ġlogo":6564,"Ġloving":6565,"amed":6566,"Ġtomb":6567,"rainy":6568,"Ġhomemade":6569,"Ġfag":6570,"Ġfault":6571,"Ġfavor":6572,"Ġwaitress":6573,"Ġphat":6574,"Ġmoot":6575,"Ġmojo":6576,"Ġmocha":6577,"Ġsunda":6578,"Ġgiveaway":6579,"comes":6580,"emn":6581,"Ġunli":6582,"Ġunif":6583,"Ġunrel":6584,"Ġunreal":6585,"Ġuncontr":6586,"Ġuncertain":6587,"Ġunwilling":6588,"Ġunfold":6589,"Ġunicorn":6590,"Ġquack":6591,"Ġquiz":6592,"Ġquantity":6593,"Ġwhy":6594,"Ġwhat":6595,"Ġwhip":6596,"Ġformal":6597,"aganda":6598,"ageable":6599,"Ġcozy":6600,"Ġcoca":6601,"Ġtweeting":6602,"Ġleaf":6603,"izer":6604,"izen":6605,"berland":6606,"type":6607,"rene":6608,"Ġswine":6609,"Ġswoon":6610,"Ġsweden":6611,"Ġblight":6612,"Ġdisplay":6613,"Ġdisagree":6614,"Ġdisaster":6615,"Ġlaziness":6616,"Ġmentally":6617,"Ġchef":6618,"Ġchew":6619,"Ġleather":6620,"things":6621,"Ġaria":6622,"Ġarrange":6623,"Ġarthrit":6624,"Ġhearty":6625,"Ġbrine":6626,"Ġbrutish":6627,"Ġbrutal":6628,"Ġhaik":6629,"Ġhavoc":6630,"Ġsche":6631,"Ġscholar":6632,"Ġplayboy":6633,"used":6634,"manic":6635,"manna":6636,"Ġliteral":6637,"Ġgray":6638,"known":6639,"Ġintone":6640,"Ġintuition":6641,"Ġeating":6642,"gging":6643,"upation":6644,"Ġbugger":6645,"Ġbueno":6646,"athetic":6647,"Ġpostage":6648,"Ġmeow":6649,"Ġbirth":6650,"Ġmentality":6651,"Ġtheater":6652,"Ġtheatre":6653,"active":6654,"Ġseal":6655,"Ġseven":6656,"Ġsemester":6657,"ivia":6658,"Ġrag":6659,"Ġraw":6660,"Ġraman":6661,"Ġravage":6662,"Ġrazor":6663,"Ġgirlie":6664,"Ġschoolwork":6665,"assault":6666,"Ġbeam":6667,"def":6668,"develop":6669,"intend":6670,"intimidate":6671,"angel":6672,"angely":6673,"conf":6674,"cons":6675,"connect":6676,"conception":6677,"Ġamaze":6678,"Ġkidney":6679,"Ġupgrade":6680,"Ġupstairs":6681,"Ġembra":6682,"Ġitch":6683,"Ġitalic":6684,"awn":6685,"awhile":6686,"ooter":6687,"ubarb":6688,"Ġxero":6689,"Ġsmother":6690,"Ġsmelly":6691,"Ġsmith":6692,"Ġreclaim":6693,"Ġreader":6694,"Ġcontain":6695,"Ġcontext":6696,"Ġcontemplate":6697,"Ġserial":6698,"Ġcollie":6699,"acy":6700,"acke":6701,"acity":6702,"acked":6703,"peze":6704,"perer":6705,"Ġillusion":6706,"Ġscan":6707,"Ġscenery":6708,"Ġscorpion":6709,"Ġscript":6710,"Ġorch":6711,"Ġorient":6712,"Ġbiggin":6713,"necess":6714,"Ġopt":6715,"Ġoppo":6716,"Ġopport":6717,"Ġopioid":6718,"Ġtrap":6719,"Ġtrace":6720,"Ġtragedy":6721,"Ġtrapeze":6722,"Ġcompar":6723,"Ġcomplex":6724,"Ġdrove":6725,"Ġassistant":6726,"Ġassumption":6727,"Ġsupper":6728,"Ġsupplement":6729,"Ġelf":6730,"Ġelement":6731,"Ġendless":6732,"Ġattitude":6733,"Ġcanary":6734,"Ġcanyon":6735,"Ġhardcore":6736,"Ġcareful":6737,"Ġmyth":6738,"Ġmeditate":6739,"Ġbreakdown":6740,"Ġheading":6741,"Ġheadache":6742,"Ġcraft":6743,"Ġcrappy":6744,"Ġwarming":6745,"Ġwarrior":6746,"Ġrelation":6747,"Ġrelish":6748,"Ġreligion":6749,"Ġgoddamn":6750,"Ġclan":6751,"Ġhousewife":6752,"hiya":6753,"ugal":6754,"Ġbaba":6755,"Ġappre":6756,"Ġapprove":6757,"Ġappoint":6758,"Ġapparently":6759,"Ġtroll":6760,"Ġtroop":6761,"Ġtropical":6762,"Ġtroubling":6763,"Ġaccuse":6764,"cery":6765,"lete":6766,"rator":6767,"screen":6768,"Ġidiot":6769,"Ġhitch":6770,"working":6771,"times":6772,"Ġtriple":6773,"Ġtrill":6774,"Ġtrilogy":6775,"sitte":6776,"anyways":6777,"anythe":6778,"Ġbloke":6779,"Ġdecad":6780,"Ġdeclare":6781,"Ġmarlin":6782,"Ġmarina":6783,"Ġmarriage":6784,"Ġmariju":6785,"Ġminded":6786,"Ġavocado":6787,"Ġsummeri":6788,"eeny":6789,"Ġcarl":6790,"Ġcarrel":6791,"Ġcarbon":6792,"Ġboss":6793,"Ġincident":6794,"Ġincoming":6795,"Ġincapable":6796,"hazard":6797,"Ġfreeway":6798,"Ġabsent":6799,"Ġabortion":6800,"Ġaboard":6801,"Ġinterior":6802,"Ġinteraction":6803,"Ġintervention":6804,"Ġartwork":6805,"Ġrainbow":6806,"Ġnaps":6807,"Ġfluff":6808,"oller":6809,"ollably":6810,"Ġhandy":6811,"Ġhandout":6812,"Ġsupportive":6813,"brand":6814,"brine":6815,"Ġsadist":6816,"former":6817,"swing":6818,"swear":6819,"sweep":6820,"Ġskate":6821,"Ġminim":6822,"Ġnose":6823,"Ġnoble":6824,"Ġnosey":6825,"Ġrepress":6826,"Ġrestless":6827,"Ġstranger":6828,"Ġsurround":6829,"Ġepider":6830,"Ġclassy":6831,"Ġclassroom":6832,"Ġhighway":6833,"Ġhighland":6834,"Ġregion":6835,"Ġregister":6836,"Ġalbino":6837,"Ġalbata":6838,"ocate":6839,"Ġslam":6840,"Ġslang":6841,"Ġslept":6842,"Ġslugg":6843,"Ġdramatic":6844,"Ġindul":6845,"Ġinduce":6846,"Ġindepend":6847,"Ġindoor":6848,"Ġindaba":6849,"Ġindigenous":6850,"Ġtrainer":6851,"Ġstressful":6852,"Ġsuperb":6853,"Ġsuperpower":6854,"Ġsupernatural":6855,"Ġhairspray":6856,"Ġexperienced":6857,"Ġsetup":6858,"Ġovernight":6859,"Ġoverlook":6860,"Ġrocker":6861,"Ġrocket":6862,"Ġwonderfully":6863,"versal":6864,"Ġoffline":6865,"phy":6866,"phin":6867,"physic":6868,"Ġsincere":6869,"Ġterrif":6870,"Ġdepressant":6871,"Ġpassword":6872,"Ġexpat":6873,"Ġexpand":6874,"Ġexpensive":6875,"Ġcooker":6876,"Ġcookout":6877,"Ġflypast":6878,"Ġplane":6879,"airport":6880,"Ġpuke":6881,"Ġamen":6882,"Ġwordless":6883,"Ġdamage":6884,"Ġmemorial":6885,"guin":6886,"guitar":6887,"Ġdigest":6888,"Ġcred":6889,"Ġcrew":6890,"Ġcreme":6891,"Ġpatty":6892,"Ġpatron":6893,"Ġheartbeat":6894,"Ġheartbre":6895,"ikeman":6896,"mming":6897,"Ġdonkey":6898,"oduct":6899,"Ġunderwear":6900,"playlet":6901,"Ġsymbol":6902,"Ġsympathy":6903,"Ġcrystal":6904,"Ġbaron":6905,"Ġbarber":6906,"Ġbarrel":6907,"Ġbargain":6908,"Ġhumble":6909,"Ġhumane":6910,"Ġhumiliate":6911,"Ġfinished":6912,"ibate":6913,"ibrium":6914,"present":6915,"prepare":6916,"Ġbathe":6917,"Ġbattery":6918,"Ġstorytelle":6919,"Ġpromotion":6920,"dose":6921,"Ġethic":6922,"Ġsaving":6923,"Ġsafet":6924,"Ġsavage":6925,"Ġsausage":6926,"Ġsnake":6927,"Ġsnore":6928,"Ġsneak":6929,"Ġsneeze":6930,"Ġobi":6931,"Ġdiscred":6932,"Ġdisclaim":6933,"Ġdiscourage":6934,"Ġdiscrimin":6935,"clear":6936,"clever":6937,"what":6938,"whole":6939,"Ġdogie":6940,"Ġdownstairs":6941,"Ġcrime":6942,"Ġcrisp":6943,"Ġcrimin":6944,"Ġcurry":6945,"Ġcurric":6946,"Ġpasta":6947,"Ġtherapeut":6948,"Ġlegend":6949,"Ġpeach":6950,"fficient":6951,"Ġproducer":6952,"except":6953,"protect":6954,"product":6955,"uuuugh":6956,"return":6957,"Ġcongrats":6958,"Ġgrave":6959,"Ġgraphic":6960,"Ġgraffiti":6961,"Ġprim":6962,"Ġpriest":6963,"Ġprivile":6964,"Ġnumb":6965,"Ġcheerio":6966,"Ġcheerlead":6967,"Ġteaching":6968,"Ġinternship":6969,"Ġinternational":6970,"Ġunderstanding":6971,"Ġfilar":6972,"Ġhomic":6973,"Ġhomeless":6974,"Ġhomeland":6975,"Ġhomepage":6976,"Ġhanging":6977,"Ġinferno":6978,"Ġgradually":6979,"boss":6980,"boson":6981,"Ġpara":6982,"Ġparaly":6983,"Ġparadise":6984,"Ġbeta":6985,"Ġsubside":6986,"Ġsubstitute":6987,"Ġshorty":6988,"Ġinstant":6989,"Ġinstall":6990,"Ġrush":6991,"Ġrobin":6992,"Ġrobalo":6993,"Ġrobotic":6994,"Ġblackish":6995,"Ġblackberry":6996,"Ġcannon":6997,"minor":6998,"minist":6999,"somebody":7000,"Ġzap":7001,"Ġzomb":7002,"rella":7003,"relieve":7004,"relationship":7005,"Ġlunchtime":7006,"Ġgene":7007,"Ġgenerally":7008,"Ġgeneral":7009,"Ġairborn":7010,"Ġjustified":7011,"Ġcomplicated":7012,"Ġcolorful":7013,"Ġcolorado":7014,"comp":7015,"comment":7016,"compl":7017,"common":7018,"ritos":7019,"Ġsalvation":7020,"Ġdiagnostic":7021,"Ġwaterfall":7022,"Ġbrag":7023,"Ġbrass":7024,"Ġbrave":7025,"Ġoffering":7026,"Ġblueberry":7027,"bler":7028,"blank":7029,"drome":7030,"drop":7031,"Ġsilently":7032,"Ġcoursework":7033,"Ġceleb":7034,"Ġpolo":7035,"Ġmadness":7036,"Ġbenjamin":7037,"Ġagain":7038,"Ġshooter":7039,"Ġshooting":7040,"Ġgrandpa":7041,"osexual":7042,"Ġsortie":7043,"Ġcapacity":7044,"Ġcatchy":7045,"Ġsticker":7046,"Ġconfide":7047,"Ġconfident":7048,"Ġconfidence":7049,"Ġconsist":7050,"Ġconsult":7051,"Ġconsistent":7052,"Ġloco":7053,"Ġlocate":7054,"Ġcalif":7055,"Ġcardie":7056,"Ġladybird":7057,"Ġbagel":7058,"Ġforest":7059,"Ġacoustic":7060,"Ġdefine":7061,"Ġdefense":7062,"umba":7063,"Ġsprout":7064,"Ġsprinkle":7065,"Ġproportion":7066,"Ġpropaganda":7067,"Ġhalfway":7068,"Ġsyrup":7069,"Ġsonic":7070,"Ġpenis":7071,"Ġpenguin":7072,"Ġpopulation":7073,"Ġpopcorn":7074,"Ġpractically":7075,"Ġholistic":7076,"Ġeventually":7077,"Ġautism":7078,"Ġretro":7079,"Ġretire":7080,"Ġretina":7081,"addiction":7082,"Ġdeadly":7083,"Ġinsist":7084,"Ġcondemn":7085,"ifying":7086,"crap":7087,"sunshine":7088,"sunburn":7089,"ughty":7090,"Ġentry":7091,"Ġentitle":7092,"Ġsolid":7093,"Ġsolano":7094,"Ġcougar":7095,"Ġgardening":7096,"Ġfray":7097,"Ġfrance":7098,"Ġfatigue":7099,"Ġrefuge":7100,"Ġnotebook":7101,"Ġstupidly":7102,"Ġangst":7103,"Ġcheesy":7104,"Ġengine":7105,"Ġprojection":7106,"holy":7107,"hooray":7108,"Ġomelette":7109,"Ġtemper":7110,"Ġwoody":7111,"Ġmisery":7112,"Ġmisunderstood":7113,"Ġmisconception":7114,"Ġnonsense":7115,"Ġnonfiction":7116,"Ġdrawer":7117,"Ġpushup":7118,"lining":7119,"nings":7120,"trump":7121,"Ġisolate":7122,"Ġdigital":7123,"Ġcran":7124,"Ġcrop":7125,"Ġcrank":7126,"Ġcricket":7127,"Ġceria":7128,"Ġcertify":7129,"Ġcoldly":7130,"Ġmetal":7131,"Ġmetro":7132,"Ġmainly":7133,"Ġmainland":7134,"Ġmassage":7135,"Ġfillipe":7136,"Ġflare":7137,"identally":7138,"Ġanticip":7139,"Ġantidepressant":7140,"Ġdespair":7141,"Ġprogramming":7142,"Ġimportance":7143,"cution":7144,"whereas":7145,"Ġerrand":7146,"Ġcounter":7147,"Ġcounty":7148,"Ġmaple":7149,"Ġbulb":7150,"Ġbulk":7151,"Ġbullet":7152,"Ġnatal":7153,"Ġnatural":7154,"Ġalcoholism":7155,"Ġradius":7156,"Ġbeginning":7157,"Ġenergetic":7158,"Ġsupposedly":7159,"Ġclinic":7160,"Ġdragon":7161,"dragon":7162,"ucination":7163,"Ġpalm":7164,"Ġbrew":7165,"Ġbreed":7166,"Ġboost":7167,"Ġburger":7168,"Ġburritos":7169,"Ġballad":7170,"Ġvolume":7171,"Ġcostume":7172,"ographer":7173,"Ġcollector":7174,"Ġmarketing":7175,"Ġpsychological":7176,"Ġcommunication":7177,"wrong":7178,"Ġtau":7179,"Ġdenial":7180,"Ġcreativity":7181,"Ġglitter":7182,"Ġglimp":7183,"Ġfulfill":7184,"Ġhatred":7185,"Ġkingdom":7186,"Ġspammer":7187,"Ġreduces":7188,"Ġfreshman":7189,"Ġagreement":7190,"Ġmotivated":7191,"Ġentirely":7192,"margin":7193,"marriage":7194,"smart":7195,"small":7196,"Ġverse":7197,"remove":7198,"Ġsquirrel":7199,"Ġpleas":7200,"Ġbiological":7201,"Ġnaive":7202,"Ġnavy":7203,"Ġnaughty":7204,"Ġnerd":7205,"Ġhonored":7206,"Ġhoping":7207,"entertain":7208,"Ġestablish":7209,"Ġescal":7210,"Ġexistence":7211,"Ġmaniac":7212,"Ġtoothbrush":7213,"Ġuploaded":7214,"Ġmagician":7215,"carry":7216,"surf":7217,"surprise":7218,"surgery":7219,"survive":7220,"travel":7221,"Ġdirector":7222,"Ġgloom":7223,"Ġgloomy":7224,"Ġpathway":7225,"Ġmicelle":7226,"Ġnonexistent":7227,"Ġfloat":7228,"Ġchristy":7229,"asco":7230,"rubbish":7231,"Ġadvance":7232,"Ġadvisor":7233,"Ġadvocate":7234,"Ġprotection":7235,"Ġwhoever":7236,"Ġbirdie":7237,"Ġrarely":7238,"Ġorgasm":7239,"Ġaccompany":7240,"superb":7241,"Ġpotential":7242,"Ġinspirational":7243,"avian":7244,"accept":7245,"accidentally":7246,"lante":7247,"luckily":7248,"team":7249,"woodlot":7250,"Ġscientist":7251,"Ġtreasury":7252,"Ġdepend":7253,"Ġdepartment":7254,"Ġdickie":7255,"Ġcroissant":7256,"Ġpillow":7257,"Ġhydr":7258,"Ġhackie":7259,"Ġrejection":7260,"Ġsuitcase":7261,"Ġsuccessful":7262,"Ġvari":7263,"Ġvariety":7264,"Ġvarious":7265,"Ġfunctional":7266,"Ġslightly":7267,"Ġtalente":7268,"Ġtalented":7269,"Ġstrengthen":7270,"afternoon":7271,"click":7272,"holly":7273,"limit":7274,"viol":7275,"record":7276,"Ġtendency":7277,"Ġtiming":7278,"Ġtimberland":7279,"Ġcurious":7280,"Ġcirca":7281,"Ġcircus":7282,"Ġcrud":7283,"Ġflex":7284,"Ġfreaking":7285,"asmine":7286,"Ġguilt":7287,"Ġcommittee":7288,"personally":7289,"ificent":7290,"contour":7291,"contact":7292,"Ġorganize":7293,"Ġorganization":7294,"Ġclimate":7295,"Ġtricky":7296,"Ġtransg":7297,"Ġtransformer":7298,"suicidal":7299,"Ġfrustration":7300,"Ġcounsellor":7301,"Ġaccomplishment":7302,"discuss":7303,"hurry":7304,"hurray":7305,"hurrah":7306,"handle":7307,"norway":7308,"polish":7309,"politer":7310,"submerge":7311,"Ġayah":7312,"regular":7313,"Ġsamiel":7314,"Ġsemi":7315,"Ġturkey":7316,"Ġcooper":7317,"Ġcabin":7318,"Ġcupcake":7319,"Ġlouder":7320,"Ġgrog":7321,"Ġgrocery":7322,"Ġwardrobe":7323,"Ġpitch":7324,"Ġmamma":7325,"Ġmasturbate":7326,"Ġbonnie":7327,"Ġbleach":7328,"Ġnutrition":7329,"Ġframe":7330,"Ġhookah":7331,"Ġhallah":7332,"Ġhallucination":7333,"strual":7334,"Ġauntie":7335,"secret":7336,"Ġstripper":7337,"Ġknee":7338,"Ġkaraoke":7339,"Ġchaos":7340,"Ġyakka":7341,"robot":7342,"Ġinnovation":7343,"Ġmurphy":7344,"Ġfairy":7345,"Ġquarterly":7346,"Ġparticipant":7347,"Ġorigin":7348,"Ġabsence":7349,"Ġabsolute":7350,"Ġexploit":7351,"Ġsimilarity":7352,"Ġgenerational":7353,"Ġirritation":7354,"Ġcorresp":7355,"Ġtechnique":7356,"Ġ234":7357,"Ġideation":7358,"Ġourself":7359,"Ġultrasound":7360,"Ġtolerable":7361,"Ġgeode":7362,"Ġgaga":7363,"Ġgaggle":7364,"Ġmaternity":7365,"Ġbridge":7366,"Ġnurse":7367,"Ġnursing":7368,"strangely":7369,"Ġthriller":7370,"Ġstomp":7371,"Ġlimited":7372,"Ġshameless":7373,"Ġalien":7374,"Ġaliquot":7375,"quilibrium":7376,"Ġphotographer":7377,"Ġcollab":7378,"Ġcollapse":7379,"Ġoppression":7380,"Ġapproval":7381,"Ġcaroling":7382,"Ġworthlessness":7383,"Ġfrequently":7384,"Ġpsychiatric":7385,"building":7386,"Ġpolitic":7387,"Ġpolitician":7388,"Ġmagnesium":7389,"Ġmagnificent":7390,"Ġconfirmation":7391,"Ġignorant":7392,"Ġdisappointment":7393,"busy":7394,"calle":7395,"country":7396,"delete":7397,"delicious":7398,"dedicate":7399,"destroy":7400,"from":7401,"felt":7402,"famous":7403,"family":7404,"hammy":7405,"lollop":7406,"writer":7407,"written":7408,"yummy":7409,"Ġicon":7410,"Ġiced":7411,"result":7412,"Ġsatin":7413,"Ġselection":7414,"Ġselective":7415,"Ġdominate":7416,"Ġcasa":7417,"Ġlamb":7418,"Ġgeez":7419,"Ġpudding":7420,"Ġmercy":7421,"Ġbreezy":7422,"Ġbreeze":7423,"Ġfurry":7424,"Ġhenry":7425,"Ġhelium":7426,"Ġrevenge":7427,"Ġrevenue":7428,"Ġkenya":7429,"Ġneglect":7430,"Ġdebunk":7431,"Ġdebilitate":7432,"Ġvulnerable":7433,"Ġvulnerability":7434,"Ġrudeness":7435,"Ġweepy":7436,"blessing":7437,"Ġpremiere":7438,"Ġphilippine":7439,"Ġphilippines":7440,"Ġmockery":7441,"Ġimmediate":7442,"Ġimmediately":7443,"Ġadditional":7444,"Ġcontraction":7445,"Ġattractive":7446,"Ġmarvelous":7447,"Ġterminal":7448,"Ġterminator":7449,"princess":7450,"Ġpriority":7451,"Ġinfluence":7452,"Ġgenuine":7453,"Ġgenuinely":7454,"Ġcapitalism":7455,"Ġsmoothly":7456,"Ġdeficit":7457,"Ġdeficiency":7458,"Ġsyndrome":7459,"Ġdistraction":7460,"Ġbullying":7461,"Ġbleeding":7462,"Ġcourtesy":7463,"Ġlemonade":7464,"Ġgentleman":7465,"create":7466,"copy":7467,"giggle":7468,"miserable":7469,"music":7470,"mixed":7471,"slip":7472,"slaught":7473,"visit":7474,"window":7475,"yoga":7476,"zuela":7477,"Ġsepia":7478,"Ġsizzle":7479,"Ġtablet":7480,"Ġtangle":7481,"instead":7482,"Ġdysphoria":7483,"Ġdomestic":7484,"Ġduffel":7485,"Ġdubbin":7486,"Ġcelibate":7487,"Ġcameo":7488,"Ġgalore":7489,"Ġgotcha":7490,"Ġgirly":7491,"Ġwisdom":7492,"Ġwherever":7493,"Ġpyoid":7494,"Ġpepper":7495,"Ġpilot":7496,"Ġpedest":7497,"Ġportugal":7498,"Ġpunkie":7499,"album":7500,"Ġboule":7501,"Ġbuffalo":7502,"Ġfiasco":7503,"Ġfantasy":7504,"Ġfortun":7505,"engage":7506,"itzerland":7507,"Ġequal":7508,"Ġavenger":7509,"Ġreckon":7510,"Ġthroughout":7511,"Ġliquor":7512,"medicine":7513,"Ġchalice":7514,"Ġchapter":7515,"Ġchampionship":7516,"Ġsucceed":7517,"Ġnecessary":7518,"Ġshelter":7519,"Ġinsecurity":7520,"Ġvirus":7521,"Ġvocal":7522,"Ġvillainous":7523,"uminum":7524,"Ġrhubarb":7525,"Ġconcentrate":7526,"Ġspectrum":7527,"Ġplugin":7528,"speake":7529,"Ġpersuasion":7530,"Ġprescription":7531,"Ġpregnant":7532,"Ġphilosoph":7533,"Ġsunburnt":7534,"Ġunfortunate":7535,"Ġwhisperer":7536,"Ġgroove":7537,"Ġimperative":7538,"Ġreceptionist":7539,"Ġillustration":7540,"Ġordinary":7541,"Ġmeaningful":7542,"Ġmystery":7543,"Ġrelatable":7544,"Ġclarion":7545,"Ġapplication":7546,"Ġoutdoors":7547,"Ġindustry":7548,"Ġterrorist":7549,"Ġsignificantly":7550,"grandpa":7551,"Ġobscure":7552,"whoa":7553,"technically":7554,"Ġacademy":7555,"Ġautographed":7556,"Ġdocumentary":7557,"Ġvolleyball":7558,"Ġjewelry":7559,"Ġspirituality":7560,"Ġillegal":7561,"Ġmultiple":7562,"Ġnarcissism":7563,"burger":7564,"cuit":7565,"depressed":7566,"hackie":7567,"murder":7568,"mpoline":7569,"peace":7570,"papa":7571,"picture":7572,"tocin":7573,"vacation":7574,"Ġitem":7575,"Ġireland":7576,"Ġathlete":7577,"Ġumbrella":7578,"response":7579,"recommend":7580,"Ġsora":7581,"Ġsoda":7582,"Ġsiege":7583,"Ġsedan":7584,"Ġsaber":7585,"Ġslogan":7586,"Ġsoldier":7587,"Ġsector":7588,"Ġseductively":7589,"Ġtackle":7590,"Ġtrendy":7591,"eriorate":7592,"Ġdodger":7593,"Ġcitizen":7594,"Ġcesar":7595,"Ġcandle":7596,"Ġcohort":7597,"Ġcreek":7598,"Ġlounge":7599,"Ġlatte":7600,"Ġlumbar":7601,"Ġladdie":7602,"Ġwasp":7603,"Ġwarehouse":7604,"Ġwhinge":7605,"Ġwelfare":7606,"Ġmanta":7607,"Ġmouton":7608,"Ġmourning":7609,"Ġmexico":7610,"Ġmachine":7611,"Ġbunny":7612,"Ġbolivia":7613,"Ġbastard":7614,"Ġbisexual":7615,"Ġnausea":7616,"Ġfifth":7617,"Ġhockey":7618,"Ġaverage":7619,"Ġremedy":7620,"Ġreassurance":7621,"Ġresemble":7622,"christian":7623,"Ġstunning":7624,"Ġsteam":7625,"Ġstructure":7626,"ribution":7627,"Ġknock":7628,"Ġchurr":7629,"Ġsullen":7630,"Ġshipping":7631,"Ġdesert":7632,"Ġdescend":7633,"Ġinconvenience":7634,"Ġinertia":7635,"Ġinequality":7636,"Ġjumper":7637,"Ġjordan":7638,"Ġjihad":7639,"Ġviva":7640,"Ġvengeance":7641,"Ġvinyl":7642,"Ġvenezuela":7643,"Ġoasis":7644,"Ġoxytocin":7645,"Ġmufti":7646,"igmatize":7647,"Ġconvenient":7648,"Ġsparkle":7649,"Ġsponsor":7650,"Ġspellchecker":7651,"important":7652,"Ġfundraiser":7653,"Ġfunniest":7654,"Ġenvelope":7655,"Ġcommercial":7656,"Ġlifesaver":7657,"Ġpermanent":7658,"Ġsundaes":7659,"Ġuniform":7660,"Ġunrelated":7661,"Ġuncontrollably":7662,"Ġuncertainty":7663,"Ġcocaine":7664,"Ġarthritis":7665,"Ġhaiku":7666,"assaulte":7667,"Ġembrace":7668,"Ġxerox":7669,"Ġorientation":7670,"Ġopposite":7671,"Ġopportunity":7672,"Ġappointment":7673,"Ġtrillion":7674,"Ġmarijuana":7675,"Ġcarrell":7676,"Ġepidermal":7677,"Ġsluggish":7678,"Ġindependently":7679,"physical":7680,"Ġheartbreake":7681,"Ġbargaining":7682,"Ġsafety":7683,"Ġdiscredit":7684,"Ġdisclaimer":7685,"Ġdiscriminate":7686,"Ġcriminal":7687,"Ġcurriculum":7688,"Ġtherapeutic":7689,"Ġcheerleader":7690,"Ġzombie":7691,"Ġairborne":7692,"Ġglimpse":7693,"Ġfulfillment":7694}